module attributes {torch.debug_module_name = "Linear"} {
  memref.global "private" constant @__constant_64x128xf32 : memref<64x128xf32> = dense<"0xF9909B3DB872A23DF96E17BD19FE3F3D208FFC3CA64AA13D6056273DB32FB13D7BC8753D52C2ABBD32292BBD70E930BD8CB944BDED8D013DEC6F20BDEA5EA63D26DFA43D6D5A8A3CA4CA9ABC626A96BCE239BBBC04C09D3BBF6F633D94FE683BA5F425BD91CF09BDDF7E4C3C17C49D3D4AA1CE3C8261993C85038B3D4655BDBCDD4E4C3D7074123D300749BCB86800BD0E7EAFBD256AE13C459549BCB4012C3C7B35A63D7DE234BD35237BBD4C9A1F3DB67FAC3D3A363DBC0476683C1FD45D3D133703BDC86F1FBDAED535BDBCE2A33DC76C49BDCCA384BB4032C13C03EF403DEF12E8BB09A26ABD909FE3BC21B8D83CB8147C3DCF606B39A4326D3D520B97BDFA2A533D6C8BCCBCA6E646BD762B803D07FE6ABDD807373D363B973D6BB2233D4F13AA3D096E9CBDDE4E99BD10AD593DCC40973DFB33013BB10B6B3C7B80313DF24F353C20CE5ABD2F147B3D1D95D23C97BA8F3CE900DE3C52ED803D030705BD1C4C983DC1D705BD410F7DBD68A2ABBD9FE57F3D1C22B23C97812E3D058F68BD133E5EBCBDB214BC422FFABA7CAC913D211C87BBA91E153D71C3B4BD22644C3BD473273DDE27C1BCA79DA23CCB42383DF7A10E3D5D8F92BD6C129CBD24F7A43D00B80B3DD311323D3E92813DC17316BCEC2BAA3C6200C4BB890225BD97F65DBD2E9C8BBD188031BCAB269CBD6F741B3DDB69443D040CDCBA44B5213DDCA2213D1BA2A2BD7C20963DC3A46F3DC950203C18876BBD9B8082BCC2468A3C4E85213D349064BDC1A3713DA7B9AB3D63AFCEB9EACB913DB6C6ABBD3CFC42BDA742AE3DEE91803DE8F4F33C1AD09BBD0D8DA0BD5088F9BCD52891BD89425DBD947348BD24E8443D6229A33D73C2363D7223743D0C4D88BCAFE397BD75EE7B3D84A998BDCB35ABBD1239B6BB5C4362396EB2363CF900933DD3CCC93C133FAB3C95E49ABDE6781FBC91B01CBD0699D23C2FE0FB3BEA898FBD03A2143D5CF80DBCCF2FE9BBDE72273D02F8823DBF3087BDD71E323CE40F1F3DD6DC2D3D492A543B3BDE1E3D1447653CE195DCBC7202C3BA4FD538BDE88B863DBB860C3D4669523B57444BBC82F7833DF9A126BD0A4542BD7A0499BD4EC2603DAA8324BDBF1AA73C941C973D782F693DCCC6E5BC92BD893DE4231D3D91869EBD099758BD0B341D3DDD72433DB0E39EBDA5E0293D83D65EBDFC97973C58CB38BD868D6D3C0CF1B73C13053DBDF0676FBD57066EBDDC731FBBD193B33C18353ABDBDF377BB1FA225BD4A86063D1866383D1D9597BCB880863D820314BD022478BD23384C3D178E773BD1EB6A3DA505DD3C4FA6493DEFA886BDA7FC73BD37D0453D64F4ABBDABD331BD8583093D55AA383BA60D543D81AB27BC5065123D3889903B37221ABDC647FC3B2B57B3BD7A04D0BC2047363C0D388DBC1243733C33CA503BA9C0363DF41D673D6388AA3D3E1D1C3D47427FBD30E7853D4E7290BDD73770BB2ADB23BC1474A43ADE787BBD293AFC3C3883A7BDAEF5AD3DB621FA3C13AC303D60349EBD049E8E3D3F55A93DD8C8EB3B782B36BDC8CE9BBDF338733D7169BABCBCE61A3D4C41653DE17CE63A1798E43CF15BA63DA71C32BD9850B4BD2CC9813D6FA986BD59250ABD2169763DFF13DB3B7B9E67BC00AE7FBD69599EBD3492AE3D796767BDE54477BD5003163D2092ACBDC3AFA33D3C753E3D8700183C9F745EBDEAC7263DBD64ECBCFBBEADBCF5FDA23DDE36B2BD98518F3D0A6972BDF80C423D4C86133D2F667BBDAEC88E3D1AAB89BDB5C4A5BDE41D19BCB6A588BDC87387BDA9A810BD9A3C723D27F5963A7678D5BCC8AC8F3DE5F68C3D3A77783D0FE9943DC863003C12CAA9BD05DE90BD1CD89C3CE4E365BD018583BD459259BB6FFF1BBD481F88BAAA779ABD66196ABD9CA2DB3C0A7283BD83FE95BD1E3E15BDD4008D3C916C963D89F83E3D14487DBD59AD90BC4410DA3C99384B3D20798D3BF75E993CF56EABBDFF0512BC80BEFCBCECCD5DBDB3B891BC867CC0BC8C783C3DC96349BD73D7983D7B155ABD09128A3D9ED0463CA98996BDE4F8D9BB5D56FFBB7930993DEE137D3D31774CBD427FA5BDE03CAB3DB22C84BDFA08123DD7B286BD3677533CE6829F3DA3578B3CCDF65FBD239938BCA9DD84BD6F4D9F3C6B75A13C9DFEA1BD3F0E0A3D27D7363CB6A0CEBB4784DE3CC88BE43B8698CCBCBF9A813D6874A03DB5E3753C833158BC52F069BD554E8B3D982A8EBD573351BCD2BAB7BCEE65BE3A1175A3BDA879A2BC2F2325BD98843B3B4A1D353D536482BCDB501DBD5312B43C421EA9BDCB675A3DA9FB833D028F0CBD14C30E3DCE93BEBCCB404B3D443C27BD933EBE3C4867743D1C49A93DDBF18BBDF35F52BC8BDA963D240014BD85519FBD2770223DA2305B3C842D27BDFE49BBBC5F710F3D6367323DF05D9D3D13E4EA3CF11FB43D6C5338BD73E7ACBCCFF4143CBAFFF93C1119843DDFE98DBDD85AA6BD46761E3CDF670A3D976C853D48DDBDBCDFCF0ABCBB0CD2BC5B9605BDF643063D2500263D6A000CBBF55A323DDE130FBCCF198ABD5F4C9B39DCF9C43C6BC734BDA508EB3C76701ABCDF8DA7BD745A8BBDC004B1BDD3799BBC3D59A5BD6F07963D098D483C08EFABBC9F2E79BC61DD89BBB14D8A3D1F1241BD9D71B4BDE61F2A3DA1E1833CFB5FE5BC26C6AC3B70CD763DE4988FBD651A5D3DDE4C9D3DBC806EBD002E1DBDCC4E993D54E3B2BC927096BC1401403DA42017BCA631ECBC0CBF943C6ADBB7BB0D2C373C0F72433D5A2688BB49C59BBCAA6C24BD82D4933DFB1826BCC85B803B264D2FBC48B297BCCD5F46BDDF178F3D79347A3D2FD881BC170A8ABD309EA6BD7A99843D737F56BD7A98E6BC508EA93DC7E25E3D8373443CC1AA893CB686803DEB179B3D6A01A83C3D82DF3C7D149B3DC89235BD019E2DBDD8289EBB6828983DA9AA0A3DF69DA53D149A4B3BEDE738BD1B314FBD8D68963D6E8AC33C726F40BD91012DBD430025BCA357133C49FC9F3D284B32BD008A853D970F28BDA3DDAC3C90901B3D8CDEA23D1A8E8CBC2E587A3C4C5B7E3D7D8D97BC6C1A10BCE4CF913D7F987C3D52DA96BD2D4D913B3352B0BDCBB0323DAAEB313CF5807FBDC24C5ABD9134663DC2378DBD08148FBDA3E04ABC1F12673D63424DBD01E41F3D93A2DE3C826BB4BD5CACA43CBEE35B3D4F86A8BC7DA5C1BBD9E9B6BC6A592F3DD84771BD3EB080BD744C8B3D68705F3DC38DB13D706C753DB544E63CCB2D973D9F11883D86A2B1BD9B11603D65A66FBCDD0406BD5EE68ABD500AA1BD710973BDF0B225BD85AB523DF3C4AC3D47BEB93C5B7471BC86E0143B139B053DE603333D31F7833D0A75953C1A5D403DE303B43DD798F9BC4F588C3D12FD7EBD60301F3D674F423D7312AEBDAA6F163D3536B33D259F3D3C5A03E9BB59DCA23DCCBD9E3D46DC093DBA079FBD7A9AB63C23B362BD1FB231BC32AB6EBD9C992C3DA1E180BD1CD4393DD42BEABCD119B83C45A3F9BCEFBF333D5430A4BC668D763D38B18C3D736B583CEF020E3D3D1502BC6D539B3D17EA583D6377913D9447DA3C540DC9BB3EF1B3BD9367B83C95E0573DE4638E3D3A539D3D51EE70BC4A1CEF3C816296BD474B6DBD2D748D3D78FA1CBB8C9037BCC4FC1C3BA8B6A4BC51187FBB4BC2583CA89C9DBDBDDC78BD9A0D133D807286BD447112BD68F2653D4B7163BACEF587BC20239A3D37D913BCEE2434BD8C822D3D2FA787BCF425783D5DB3963D130251BDE30C34BD897C92BD90BBB0BD7249A33DD860FA3B699E9BBD1FB4A73C4031E03C616641BC3D29123DD302843D81486B3C092697BDCBB8B63C73ADB73B8AD2B53CF057F6BB220729BD9676173D1FDCA23CD0EB843C01BD31BD35023E3D8A9196BB3F5762BC69BF10BD924BECBC167E74BDEAA26D3D39056C3DF03889BD928B4B3D89A82CBC283E88BD91BA97BDF113E13C07B9443C0C5093BDE9FC14BDB22283BDBF2ECCBBF399113D58678F3DC16C15BD41BD9C3DA54F963CC7C828BD8CDBA23B10779E3D288CE0BB0C1A4BBCD07750BDC7DBF43C827C193CEEBB88BD42276D3D6C8C933DEE591F3D0A4F09BDE6A0B73C6018983D07CFF83CE25A14BDFD703ABD7CB08C3A8E326E3DD520833A3CECB03DC4A79F3C9C27823DE81626BD9B038D3D3D659E3D5CD6643D042984BD1B9444BD4B363FBD2B155DBDB3C2973D5B526EBD7CDF0ABDECDE6239A1E285BD94E6A1BCC5FEF63C1B792EBA9C326A3CA4D6B43D9957C53A527F013DBDC1693C27C993BC05929BBDA0B8ADBD9B379CBD4017FCBC3CBE483DE036D9BA230E92BD61982D3D9BBC81BDB95C453D183424BD73FE813DBB87C8BC9F7B0F3D45975C3C25B569BCF933FC3CDFB793BD58F70DBB419043BDC9C345BB5FAFAA3DCDEB8B3D0A068DBD143E2FBC2A6FF5BC58FE963B5492923D1A805A3DD715E2BC64A53ABD950A14BDE5BA53BD4D1E4FBDBB352E3DA3A6B0BCD70992BD8215D1BC9396AE3D1DCDD9BC239FA33DF4F3673CB395A63D18607E3D1CF11CBD37FDA53DABB1073DCFEEDA3C81C90B3DD9AB833DB99D0EBDEA64643D825B473D6A868B3C9B1F98BD7AEEEF3B9E2626BDAB4396BC904A773AD2E1913CF9C734BDC1FF86BB68F878BDCCAC8BBBFDFD623CEF06A53D41B73F3D37AC17BDBAC1653D989CABBD6B726E3DFFC6AAB91597B2BD1B088F3D531D8FBCC7D14CBC9213B13D86EFF6BBABCD903D30F51ABD483B12BD1D2893BDF358893D49BF98BD92A14FBD681626BD6030B43DCCE197BD1A10B2BD93C4AB3DB2E9753D3BB5A8BD8E47043D5C9CDF3B956F1D3DB69296BD0E1CADBDFC72063D8C6948BAF738333D52E6393D08BC183D9D3676BD57099EBD1052883C99C50EBC5292B0BD65B4B2BD697B1ABD472892BDCD21D4B67B6B9DBD2147873DE0392EBDCE9595BDE07C41BD131470BDA203C03C833F6B3DBDFC45BD497B9239FB40A03DBE866F3DD94D93BD25CFAD3D6909EC3C9011A5BD482936BDB84C8A3D1F0F55BD9E711F3D48CC913DAE9B1F3CC16999BD2A70E33CFA97A0BD1076A0BDDA9DF2BCA8737ABD8C0693BDFD5882BD138508BDFF8647BD50DB1CBD3C4D8A3CE52A863C5342313D85DDF5BCEA9A4E3D1180DC3CB328A8BDC52B95BDC16F2F3D80A04ABDF42F04BD700A913DDA67B43DD9A29D3BF0689DBD8188A2BC5727E6BCEA19C7BC695145BB447630BCE28D163DB1FB95BD78C159BCCEBA603D54F289BC1A31A93DCB6C3E3D336AA8BD72EA8BBDF394C73CEE46B1BC6320D83C364743BDEADB0EBB475E24BD0B8A6B3D8305873D55D4ACBCA15D3F3D74F7DDBACF5809BD312D32BD575976BD19B060BD561C01BCFFFA23BD0545DD3CC973D33C998F63BD22C12C3D62F4F23CB7CC23BC66AF67BD2E01B33CF3241B3CC66C9E3C357D1F3D250B7FBDDA7BFD3C60A214BDB0393F3DD5F1903DE8CA7ABCAF4B15BDE42D9EBDE9573C3DB03288BD99936EBC127780BC1C5582BD0287143DBCC961BB8515983D7B1FD43C492175BDE1F8313CB31C38BDD999A43DC972A63C01858FBB59DBA63B1588773DD6DE813DF977143D54E989BDC0C0F9BCE500F2BB0D4FADBD00FEB33DFA87BF3CEB5BCF3A97DA603DBB684EBD0C505DBBBA376CBD33286D3D034F2A3C158616BDED7FDE3A927A463BAE993EBC4455A2BDCDF5B43DD689B4BD37D83EBC28EB8A3D186AA53D814A813D2F7C093D6F069FBCB199BC3C1CE2633D573C4B3C8E4A703D0183CC3C51D81CBD45DE53BDB4A60ABD2CA27ABD980E2B3B01E374BD2C6B74BAF91A15BD893730BDBE6512BD2E4E5F3C287A813DFDF1AA3D53FD2CBD0D620ABB81B7553C465E4D3C9F1DA8BD1FDF973DD7A203BD9888D43C622F81B912EE1A3DE988293D9711A0BC711ED03C3D49163C496E46BDA57F5F3D5737073D1CDC8B3D4BD2213CF03C5CBDB9B0BB3C5C3D7FBDAB49103DB399983D480B763D5B09C43CE5845ABD42DEA5BD1D5D4D3D93F6B2BC7A5CB2BD79A8583D5EFFACBDD8E812BD8CF3363D8EBD623C2D9F93BDDBD8A8BD9A86A63D744788BC03779BBDD5009D3BC26A533DDE93193D699792BD302B4C3DB266A23D845BA63D500C363D179974BD08FE3FBDD5D1743D5FCD72BD9438FF3C3B5983BD4735813D02E298BC0AAE1DBD051FC73CC93C073D0016C33CC8478FBD0506F2BC5B2E983DC42CE43CE7389B3CC720A33CD01E1A3DBE8374BC6134203D09B89ABDCD49443DED776BBDA7A6BEBC6DB665BD080FA73DCE0D793D6F985B3D8E3E86BD98BCB4BDE9CEED3CE02C36BD87C999BD921B993D65FAFE3CA05D073C75947FBDAAFE68BD242AACBB2686143C166E53BD902A7CBDDC7D1F3DC7709D3C66AB653BF540853D9D0F17BDD1AD67BCDA9DA23D646799BD6D43593B8AB1A53DEF8C0B3D7285AB3D4C9F2FBD0CE7AFBD0B2D8BBD785A1BBC2CA7163DD7C6FFBCE3C6AB3D9B79513D19F3273BD0FF14BCE457203D5E94B0BD3BBFF83CDDEE893D2A048DBC38B2A53D134B37BC221555BC91A2403DF8D403BC41E62A3D9E40A43D6A467A3D62824E3D2760853B52243F3BE4AF7BBD90D2F4BC4267AD3C75608ABB20878D3D9376CEBCC5BEB43D55F5203D43718B3DEB466C3D4492F33CB45292BD034D0A3D7E7442BC0BF8E73C228C603D1F0C2A3DAEF2243DEC886EBD5302B03DF2A8393DF07226BD61E427BDAC46A7BD332DB3BC1769B6BC1E6C87BD14E303BDE997AFBDFE55F63BFE5B02BD4DAF043D94EDACBD6BE312BD5ADC1A3D690D53BC43A69ABDCACAC53C2D65713D63FFF2BCE3CAA73DD42755BC3313EC3CAA192B3D094E85BD7EDA2B3DD75345BD042A7D3D6F379FBDDB14BA3C185234BC14074FBD90B76D3D6487173C9F7A83BDE00634BDDF9359BD3101B1BD47BEB93BB9778FBD48F80B3CE9B0833D85E5A9BB310305BDE03F873D2F422C3C26E28FBD3981203D77776E3DF418E6BC22819F3DC4CC88BD5FD993BDBCB8ABBDE25A09BD6CE0EF3B0F06543D0B7DA93BD443003DD34C5ABD914B38BD5B0C2CBCCBDF45BD51DE423D6A659DBD8ACC483DC188A7BDD1872B3D15B305BD59839D3DC873A0BDB0E5FF3CE3D68C3DA47878BDDCBBFEBAAE1788BD1491073D1F3E1FB950D4D2BCD0D0A23DBEFC79BC8D6E8F3DDDB22FBD8F0A1ABDDA77793D54FF1C3CF02E06BD46B60E3D927FB1BDE61AA1BD7C6F0EBD0E21AEBD695A9EBCC91FA2BDDCEB94BC279488BD9CCD21BCECAB103D9F60243D82D8913DBDB48ABC78186A3D093F943DEA68D73C7A7DB73CE01221BD3ADD2C3D88DAD4BB98FE98BD35D41A3D7164F6BC350205BDC1E284BD805E92BD1029A7BD1C306B3CD976CCBC956A7D3D8A1F66BDB1EC33BD6AAE74BD299FD3BCFFF1A23C5A469FBD9C2CACBD5638743D8D0956BDE98B9BBD3B6BA1BD841686BD9EB34E3DBC00B43AB6C6963DC8EFE6B8DA5FA1BCFFAD6F3C8FE5523D577A91BCFCA928BD2086903D25797B3DBAD597BD7CA7B73C59EC013D17828B3D7A65553B486269BCC774E03C9E074BBDDCD89CBD8CDE123D62313CBD8C523F3C5639123D5B27173DAD948E3B4CB291BD9D534ABD6D2846BDDF5018BC9D87C9BC989F163D4B47163CEAEABDBC0F16363D1CF544BDD7D0823C2A080D3A89AE28BDF2CC60BDD27E9DBD495096BCABCA063D998755BA637351BDD13D783DB9A6463DB70B003D717B86BD376D093B5B63933D9076373C85C09BBD002DF2BB21CA8EBC04958B3DD0C25E3D5B7C99BC4260973C36E21F3C489119BC60331A3D15EE893DFF801FBD232427BC4E82743D7F84D6BCB16621BD1F590C3D6AEEFB3C94D6583C07DF4CBD29A3713C098C0C3D8CAF593D201B393D9B71D6BC5BE7A4BD469E34BD0344AD3B0395B3BD212E78BD3C47993C087D8E3DB3A3B1BD86C47EBC3DD04FBDF0CA2D3D27A4993C23DC233D3B937D39C786A8BD6A1D1F3C6E85933DE22AA1BBB640D9BC0D2B453C33C7AFBD28ED05BD642A7BBDB497B4BAF186E0BA18278E3C5D7EAABCB90A51BB288376BBE49E9ABDAE4F093D24D119BCE4E60DBD1AE9873BA41B9C3B4391AB3D4A27C6BCDDA3783DFBA3AC3DD4D5713D253E57BD267E80BD6C3A093D02669A3C7E1C853DDF86D83C625F3FBD77D944BD6D6F99BCAF01453CD9ECA0BD784890BD750D87BDCD56363DD910993D53AAE33CD17D03BD7161D43BC8A22A3DDFB812BD16B39E3C6378A53D539F8BBD70F0A2BDD914C43CEFC4253D353C6DBCEBD57BBD4CB10BBD6902D2BC501666BDA5D8B13D9684323D8567A93CFF891C3DF05894BC05BC9FBDFEC947BD902884BDB5E968BD8802E13C75A7A0BD440C96BD593C023D6269ACBD5F06833D2733C6B932F8A83D9084BD3C8DF7F9BC003778BD7815863D70BF353D11BCD7BCE042EE3C59B4D43C21B7613D98D77A3C74FE863C7BD53F3D5061E43CA32B793D6E2155BD8109943DCB956ABDCDD849BC2C212EBD5DD2A43D3DA282BDB192E1BC563676BD8CBE9EBD2F371ABB0F12473DF07360BDF142C43C50302DBD41B0813C5B8ECDBCA9742D3D97C97DBD63E469BDC29D953DA310143BA8AEDF3C7DF896BD7F0BA8BDAAD32F3D9C2DD23BD3F23B3DA9462E3D6DD37CBC65EF013DC0069A3B137A1E3B6F588BBDAA4E073D73835EBD857516B9C5DF823DDAAFD23CA5335C3D4C6020BCE08AC7BCE9D0383D381A2A3DAF83963C9670673D105C3EBDFDE8163DB307B0BDA7695E3B05DA093CBADA053D0972803C411731BD10046CBD1E0EB0BDA83BA53B4C7BC7BC0AD6D13C0E9F35BC34F68ABDF67C6D3DDE2B99BD42222BBC7A47193B1581133DF5BC9E3D7632543D0EBDFABCD7914EBD59ECA7BDDECA36BCCF64523D1E0E943D405F113D02CA9ABD61B0A7BD3A9EA53D512472BD8FE4873D8701A83DC1AB063DCDC89F3BFED8613DBF250ABDDDB310BC7A16193DE663943D4802B4BCDE05AA3B52D551BDF1AEDB3C338789BBE5DD03BDB653ADBDB8598C3DD48CACBD066A393D43124C3DBE7CEBBA532685BC688EAE3D6E1E1BBD307198BD423842BD37E44FBD4EE8DB3B72CA7EBC885B23BBFAB9FF3B7A9A753CBA1022BDD5FB943D1A72193DE2AF22BB73DE883DCBB2A3BC159A723D9859A1BD1918763D3AACA43D20B8803C434686BDDCF8A6BD053DB33DC7037DBDB008323D58DC1DBDA105B6BCFBB6CBBB90FA813D9966B53C5137443C19E89FBDB58FA4BD6AFD453DAFDE33BD44AD7CBD330703BB161112BD09F380BDAC07383DD55F643DCBB5E3BCB96A473C30BA8ABD099064BD2615783CB11DA1BC9B9A0CBC485B2FBD89F72ABDA7334E3DE9D94A3D2AD018BDE8F107BD53BF7B3D6EE7963DB05DE83CEE7DA13D91AD23BDD93A8B3DB33D1F3D8938DD3ADFD8223D79649CBBD9B8B43D840F02BDEAF5213D1CCC7D3DF34DA4BDF31138BCE0D09BBDF8E375BD2B83ECBBCDAA54BBA4A1633CD1C8ADBCDADF55BDD46B25BDB22B9F3DDC1A2A3DD2AF9D3D8BBF5A3C519A4C3C333948BCE2098EBD74136E3D436952BDF1DF1E3D289A80BD83180ABDB13F793D5AC130BD8BBFB83A7D71723D7C996C3C8721DEBB304AFB3BDA3EFFBC662A4FBD084CAB3D4B08A0BD36BEE3BCE3D4023DEA82A0BD0FD55FBD0DDC893CD76FAC3D2B01953D293E2C3CBD0282BD9D11A4BDF48F393DF2B7AE3DA6100DBA4E98333D30E0503D61076ABDD2F229BCB71B343D173B7E3D7D6E81BDF516A3BDE32B243D13A944BDF973AE3D07A9A2BDBBFE94BCEFA17B3DDD36823DF8A9ECBBBB4CB0BD023544BD69DA853D1A26A83D219B383D5E51C9BCBB4341BC20A2463DE8033A3D0694013DCB6444BD28D02A3D0B7DA3BD3DB716BDC99008BD228CAB3DEB443C3D2F4A993D3461293C61C6AABC2A5FA7BD887516BDB7CC233DD324893CE207433DFEC1833DEABE383D607EF83CA4D98B3D6B23E8BCC3A5B33DB4C590BD0AE51DBDCCF7263D0E569DBD697CB4BD9397F2BC56B293BD88C7C73C96546C3C397744BC88E989BC2D9D053D9525143D114F5ABB46C761BD207FA4BC718EB23DC355653D745A5F3DD9D765BDDBA61E3DAE999D3C21CFB0BD66AFBB3CE65EA9BDBB4786BBB3E9A0BCFA47D5BC88CCA73DE9D0863D6470EFBC1374333DF680693DF54B723D4B48ABBDE4BA913D9F7884BC9DBF37BCD1D1493B78C9A4BD518990BD7C66B1BC9B6BB0BD740CF23CBBEC8EBD2BD013BDA2B55C3DC1048ABD428B9CBD83E70BBD5BAE403B4E218FBD501EA5BDC65EADBDAA2C793DFF2F203C90B5B03D7B36A6BC2F06553D782E8F3C59D7A7BD3855933D12C1AD3DD430C73CB22458BBB0EC343DB48EA23D0FDF8D3C20EE0EBCDBAE0D3D6909BABC8F75FC3BB4AF6E3D3FD087BD3B7F973D92FFA63D1AF3AABD20BE13BCD547A03D7F96893D40EF0CBD4FF289BD4C3CCBBB9EAA923CDE399E3D3547F2BC3160B43B704B03BC387E763DD2CFC6BC9D19523D3CCA02BD3D61D9BC9903533D1224E23B5C837ABC9E47393CC739903CF165663CC5D1ACBCD2DC36BDC30DA93A9F60993CCF60A33DF6E6AFBDD0762DBDA04256BB5CC8493D5E0E4BBD8DB03A3C625D11BD8FC09B3DB8C8A0BDF14E5DBD921AAD3DB86452BC5E8378BD64BB16BC8200903D78FA8CBD1C9C323DB5C6333D5552D3BCB95669BD05448D3DB0898F3B60A5913D952E5F3C3FF23CBD527B903CE1C9153DB540403D5CE0AB3DA8EB6BBD091CB63C622A8C3DBB7A2CBDFD34F43C610CF73CEC0AE63C25712F3DCAC570BACF9A23BDDD01993DAF7DAABD77C79E3D1AB4D93C8AAEA8BDDAEB403D6BEC203DB91B8FBD411F9CBDDC1B3E3B8F6A81BCBAB374BD431591BD2CCF80BC4A07ECBC39865ABB42C505BD5ABD86BC224C1A3CF69C603D540700BC3FF0343D5DD15ABD5FE84A3C071A833CE30393BD5B4C8D3D24718D3DE07C9DBD233973BDABA64C3D11B35CBDA3F9323D56FCADBD7B75913CC67E1D3DCA2C873C2DBC88BD59D92A3D589DA13DB8489CBC3D07983DC55B093D93D8633DD3AA303DBA722F3D3B88803DA9F8283DC4AB8F3D558EB23DAD7CA13D7B4D98BD0FE689BD1542AABD977C27BDA5A79C3D9F2763BD2A06AF3DDFE869BDD4CEB13CDC2AA6BCB1FD953D2465AF3DB6F137BD0E63233D5130DDBBCBB509BD8AF5F5BC8AC416BB46292B3D95DD2A3CFEEEACBD5777583D0B71643C0B49BB3C215BD23A4D21743DDBCAB8BA3886BD3C4780EBBA57DB453DE726743D4422BF3C087850BDC6479BBAE29080BCD0E567BCA0F4B1BD2BBF81BDDEC08BBDE52E5ABC2AD71B3DDEE0A7BDC1ECA83DBA3669BD7061A93DE303AB3D1071AABCDEAC9BBC2B427D3DF6E186BD75658D3C4E67A1BD3514D93CFA0963BDDE40A53D6A56BFBC3DE644BD42AA4EBCA7A69B3D2696C63ADBB18EBD7C9CABBDC0307EBD0C55A93D4DDB723DB0E94C3D6AF371BC53BD2D3C9147863D2E65913D99948ABDCC119A3D6BC6E6BA9F21CC3C5C476C3D6A2AB23D0FCC2E3C9FAAA3BD7B9E5D3D75AB5EBCD0E584BDF870D9BC01CB2DBD202CF0BC0C5381BC821FC6BC444730BDD875D23CD668FBBC9B3CF1BCFF14A33C92D814B9CD51ADBB01BD383D066D6C3D78FEDFBA1CAB393D805C2CBD4AF0DABC5E10843BD3DE12BD7C50403C35C3943DD5902FBD4C8AA63D2E2D003D26D4F53A05B189BDB1554C3DF620303D7206AE3DA24C89BD6EA29C3D29601F3D4DB01E3D7C0D273D27E39D3CBD4601BD86AF8FBD22FCA2BD1C996E3DF762883D2A9DC03C614FA43D060C633D2C2C4E3C25290BBC85A756BD6B74443DA531B63B7AD5E83CAE0666BD9A5A7C3C9AA1493C94D8123C47CEA6BD0A9C22BD5AE3CBBB93348EBDEC8504BCCDAF25BC3A69F0BCC5EB8EBDED45E13CC3D6393CEBFA9F3CF17F89BD4F7011BC4048FABC54F9F3BCA948B23D4E76ABBDA9A316BC5132A43A6655B23D4FF050BD00A3263D0F3B8CBCF2146C3B3D1640BD2FFF82BDE6A7DEBCBA39A2BC1BF186BD302FBB3C3E2BE83BB68AFFBC94AB60BD503A893D312CBEBCF3AB8E3DDCF7E4BC98F9ACBD0BAD94BDC7D759BD891B5A3CC973A53C7E7D65BD7BF15A3D0A33773D4B9D16BCC5C75DBDC7B0A0BC346EC5BC1DA6053D45EEC6BBC0FBE83A44F189BCED771FBD3C31563DB38A963DC368313BDCD0AA3D253AF33CDDC5933D2085ADBD72D4B03BBB0C6D3D32209DBD8E7D6E3D1C649E3D90790C3D93023B3DCA36E13CF75757BD45F23ABCD2FC6CBD2CCBB13DAFF0C5BC9444393D2E24A9BD173790BDFC889E3DB9A2133C8100FDBB2D232F3D36F5873BFC1B8CBD5EFC9C3CA85F94BC27BD00BDD1EEA8BD0554933DB405083DD42FB3BD0FE9A1BD6DE3323D7A650EBCE787B43D00B0813D244DA1BD91A30ABD2DDAEE3BC1096EBA93AF6B3D2701433DC42010BD76E3193D8701ACBC50882D3D07CE5C3D79BBD23CDCBE64BD0C2B52BC34D71EBD8318273CDE5D6E3D486F7CBD4D73A03B1940A3BDAE98803C6B44A8BD8D36C33CE3D467B94FF0813D5272813DE73F44BD7572883C7EF283BA9DD7113D825F58BD9713B7BC75EF693DF19184BDD8174A3D737C16BDBDE390BDB6DDF63CC92159BD80DC6D3C19FF29BD9D1E8D3D8914793D32528A3DBC3A743BC8A6ABBD96BB8A3BCD2266BD84270CBD655F96BDA388573DF87E8DBDD24E1C3C4FC38C3D270C9ABD0CD602BDA42A9B3D10B374BD4964883D5CB0FC3C124DBABC9E399F3D3052B2BDBB211E3CA4F75B3D684689BD1271633CCE66D93C21FF833B40EF9F3D8D2AC73CA53DCF3CCEB2033C8C8614BCBEB9323C92A1833CE8784E3D6971B2BD27B1953D092C4D3D086407BC26E7003D2BE3CCBC3750CE3CC3D0D03CFD6F933CA2A64A3D7371DABBD4308B3DB2E6A8BB6ECD363D5AAD31BCA03278BDA2BE02BCDB2C8F3C37A79F3B7D75463D57454ABD2F4129BD2E52A43CDFC848BD0483653D34B4023D42AE28BC582CABBD26B000BC015555BD5C123EBD7D989B3D7ABAB93B1B2FB6BC8B1FCCBB8A8E263AD5A5883D624194BC12838D3C3E8C7AB9456A73BC870BC7BCD82C18BDC0B322BD8157903D1D67793D126A25BDDD2DB73CFC2B8DBC33A1133DD502893DBB5E81BDB8F058BDD90113BDD6EE3B3BD3F9A4BD2ADB933D112CA63D8501F13CDD2C82BD129D75BDDF57433DCED1863D1B2A0DBC033FAABDC27D1F3C1A98AF3B672126BDAEA990BC36B7ACBC653596BCFC6B833DB74D1CBD52211EBD4DE0E93C49ED773C15FB0CBB9872203C5063C03C13B8DEBC38A1353AA730493D3219B83B6E9C2CBC06B8B13D4FCB75BC32353CBD61C27A3C616497BD83B2483CE564903DCFB28F3CC6F342BC57F2853D024D923DBD3F33BC711C763DBB30A53D794C9DBD778CAD3D1A3681BA02DA2FBDAB1223BDFAD378BC6B8FAA3D336E393D163C8239911CCBBC4164313C7191F4BC64E17CBC22675EBD13D20BBD4A26BE3A64A5A03D93BC873D4C0B1B3D7135B23DF7DA883D01D4C93C275C7F3CA4782E3D72E31EBD97B64EBC0AE2773D031A7C3D241F8FBD8D82B5BB633A013C7DCEC33C35B1D9BA1FAD813DD2EA38BD6A448E3D55B455BDDB1A293D16D1843D42375EBD659BAF3D0D15883C6B4748BDFC9CC9BC30369C3D552B88BD568B9E3DC2D683BC4B1EFDBB8FE921BD00A4E43CBDADA2BC496E073D3BD085BCF26B04BD0482993DA8AA94BD5288AA3DB212243D040CA53D5FCD393D905D0C3DC1017BBCA94D333C50557FBD22C89EBD0072A4BD6CFBFCBC68A9FF3CA189D53BAD64863CE9F7A73DFE15A23DF1C68EBD595BC6BC936FDEBCE748A4BD535F883D4985C2BA2835003D61D11E3D408E6E3CF1B4763D20ADE4BC05AC8C3D3837823D2D56A93C977F80BD5581B1BD48A3233DBFB12D3CA153503C4CD5A63D1B6D20BD74766D3C94FEBEBC167E11BD070F023DC3454C3DEF42CEBCA67F8A3DBBF0B23D20B5733D674C11BDBCD3B1BDC25EA63DAF2EAE3D0890153D3FF57E3D2C1F473DEED0C13C4482AABD367C98BDDAB5833DB628963DB09F9F3DC9CBA33DFEAFF63C11BD2EBD4B93583D58C03BBD756CA3BC409F23BD72B9603D7F988A3C24D64ABD9EF7B03D498D93BD931EAD3DF473763D2972953D08C664BD05630A3C6FE39DBD124EFC3C91469ABD2E76083D7A58C63C64BBD53CC0B6CDBC5586493B7D550A3D94A49DBD545F903D84E459BCECBBAC3DDD591DBD8035DA3CD32BAA3DC53276BDAC38563DB9F9EBBB46E6C6BC0DA39BBD6130AE3D1F90193D11501E3DA4CEA5BDD40B5E3CD9DC5B3D4C3B853B4D7D8CBD898C353C046B8B3C6B33A23D7EAFD7BAB00B423DE1084B3D97FC5B3C4EDC2B3DB986B1BB5A58A5BDB442943DA7DE80BDA0229CBC90127C3C01AC4CBD0408733D551432BDAFFADC3C76DEAB3C95FCA73DCC9021BB470AC13B8792973D1FF9873CF736A2BA3FB48A3D17E4733DC2FB893DBB9434BD599AA5BD68B40A3DBC8528BDDE21303DF831833DE47DACBC2DAA8BBD9193653D7C87A73CA57CD33C4238B03D2E9207BD21EAA1BD76DFB23C30A1A2BC55469DBD11D7CB39CAFDEF3CFCB0D1BB4428DA3C332FB2BDB640913D55ACDB3CEA72FF3B71149B3D44AE893D213282BD0E1F12BD0B29813C08E968BDE32E93BDF0E5103BD0037A3CB2E14BBD177E23BCE9E592BDCEE40FBD5E8C493D904E273CF504A53D385A683DB6CD8DBB92FF34BDCC2B11BD5200D0BB57D6D73C7E17B43D6F29D23C2E29AF3DDEDCBC3B0366C8383B8869BDC2222FBD6DE5043DE815893DFF20A03D80411B3DB587883D9823E43C26F1303DF8F2CC3BAA4298BDD6B4AFBDABB6113D2787AB3B6CBABBBCBF217E3D626898BD285C3BBD40E136BD6492E83C91BF683D5066983D6DEA1A3D1A33A63D07F330BC929B733DD485683D4325213D7B3D4B3D17A5A83D29D8A0BD274791BD86F9133D07E4033D0B76263D00038F3DDD9E25BDAFF503BD568A073DB8BEB1BDE5AFA2BDC10953BDA09AAA3DEC4028BC2BB98BBD7FDCA63C5B4FB43C326D453D5851713D45C3FD3CD6352B3D6AE2853D9E6C91BCD20B1C3D56699B3DFCC2A2BD1C55AFBD1DFC4D3D2B79703DDC24A5BD859019BDABEF543DA83792BDC3AD4EBD11D4243B651A3BBC56C8E73B09E7373C315D82BD92C5A0BCC53C69BD5B1E79BD457713BDEAC0A93DBB6C953DE9D40E3DD5EB41BD1335D73C7DB04E3DBCCA0CBDF8AE9F3CABC043BD8D73083DD68C00BD5B7EDEBC14B9AEBD0BEC963D090B1EBD047B263DB0075BBDE128873D233A783C2B7219BCE3738EBD8CEAB33D5543DABC1631273DC5A68B3D6F11A33DCBE4223D7518AC3D3E7ED2BC5EAC9B3DD5EECDBC1B9DA73D311BA13DED029D3D0A688C3D0129523D5E2737BC17A8E8BC2A47A03DA239B2BD5137443DADA8143D96BC883D484C1B3D036B603B4FAECD3C684B5FBDE8DCD23C406077BD759B9FBDFD033B3C68798D3DDA69A5BDAD5D553DA0E4553D8A4DA03D234ACEBC1C1B3EBCB33A9E3B4303953C50A1D63C5B9BD83CF2F8283C0DF6A03CFA93833D795713BDA9254DBCCC230D3DD4269B3C539F9BBCDA8C3ABD68D21ABD56295E3D8A4036BC186E90BDDE2943BC9AF9023D129A2BBC7EAB423D8980943D09511F3C1874253CD16C633D9BAAED3C836B6E3D800FDDBC889266BD90B06ABD2B7D6A3D91233D3D6F91E5BC24A7E83CCD3E673D962C473CE210A43C767345BDC893E8BC9FD177BDE58A9B3DE1B3933D744D82BCFE7B75BD54AE47BDA7FF0D3A0DA617BDA9B7263DD8853DBD359CD63CD5A5843D67296D3DE819013DA6A1F7BCC10E563DE69E7DBC06E402BCD57CB83C920FD83CF68828BCE70792BDD03C35BC228CA23DC5B42C3D0AB0B1BD6A8A42BBE0FD2CBC1CD49FBD0354DFBC2985543D79C5AA3DD5949ABD5A73AE3D770B91BD4BB0A73D972547BD7A0437BD0104C1BCCF5A26BDBA778E3CC7CDAEBDB997B33D597B2ABD910204BD018595BD2D8B96BC48413EBDECB42A3DD1925CBD19A038BD81A36A3D274ABA3CF1751A3CF4018B3DEC16ABBD9126943DE02491BD0518A0BC54A8983D13FD943C43B79ABBF4198D3C1808753DF113B33DD953BF3C1B533E3C1389B4BD209AACBD1E42283A329F51BD74246BBD8ED5483D49D934BB7E8E63BD69A6A83DE66C083DD808E23CF6B952BD884093BDF143863DF1BB143DB5BA9DBD6D4DA0BDC8F2913DA11D3C3D3EF6FE3C70AC92BDD0B76CBD27DBAC3D623F923D6341413CDDBB713A7F1A023CC8519F3D469FF03C52459B3CFE0474BCEB1B223C62763E3D5CB5AD3D400FC5BC06467D3C50A8CEB9B5ED9D3D990A9DBDECA833BCFD3E5BBD19606CBD99ACB13D0C92123C7D0E813D9E8E67BD83F6903C18E094BDD483573DC370113D24D6313C5356A63D49617ABC18DCF3BC6894A63D0DDD08BDCB52A1BDAB0BAABD0917A0BD8454B0BD82BAFF3C9FF27B3D5B0A043C777B7BBD3669F33CCB2F9E3D968A413DD67246BC9F0D37BD1D7E9FBD1540463DB69898BD9A2651BDE08038BD5A305ABD22D925BDC3797F3CF9DCB93C85D83B3D39151E3CCA94B33D54AB59BC69570A3DD6FB4F3D0111F63CBC44393D84A398BBBF692A3D3BDCA4BD8B4FA03D53A08D3C1F4711BCC4D99BBD315295BB76F9FB3B52292DBDF1D19D3D3011A93D7E77A4BD51CD953BFBB00C3D1A0893BD73BEA1BD70D54C3DA9210ABD2A2B9A3CB9445D3D08FFC4BBE5C3B8BC872BCB3C0E2A6B3C56B351BD2B2E7B3CC8C154BBFF5DA93CA44A873C3BACF73B045E30BD109DA93C8D04073D838380BD072C39BD99189CBD3BAAA4BD69024C3D07C0083DD0CDA03D8A64033CB6F4F73B5EE2B3BD6C0966BD0B79A43D96D10C3DA87A23BD1D7A6DBDB214803D052CE73C8558833C9D6E833C7D19F2BC6CBBA33D35352D3D4BDE10BDBAAE343D3EE2113C38AE4BBD2E3B8ABC4B07043DF8033FBDA241063D96BA01BD5C0C033DBCD3B43DFEAAB03B494B703D1E3A953D9760803DF51C243D1809A0BD4DB0A33D2D76A6BD42E9A8BC4FBF3FBC39AE033DC29D92BD36C40B3DB5639DBD4BECF23CF0A339BBE8375F3DD7B079BDCFBEF83CC1D452BCE66B863D2CE49E3DC9D8D0BB4724433D44278E3D02809FBD1A4E3B3C7874A13C905158BD23CB5FBD3ADC16BDA39960BDF4B78BBD73727FBDFDC071BB02E5C33C3BD738BC849BF53CF08E91BB4AAC873DEEA189BD96B01A3DA56EB03D2F2A783BE0AE2FBD02C6ABBDAC353EBB396D46BC9796ECBCD539DA3C2C6064BD56829ABC03548EBD245694BD754F3A3C45E4EABCB92F5C3C0003A5BB94AABB3C58A89F3D17D18F3D09BF943D16E360BDF7ED8F3D69E62CBDCC86623CB04E88BDBF7BABBD520037BD6DB5AFBCB07E9E3D13371C3DB659F93B1577393CA9FA26BDBE64CABC4637943D70D4AD3CE6D79A3D828CEDBCD4FEA1BD2E6EB43C11A68DBD77C308BD4B2987BDA52CC03CF7F5693D7F8ED43CEDCC12BDD89C1EBD9DD1A4BC79A0D2BC7624263D3D70273DFBC03CBD5984B1BD53A16DBC43EDEFBC4096A83D827B423DBFEB173D2326B03DC43E1CBD795919BD00D0153D1A4E48BD170A913D13DB2A3DAB0B0BBC8EB8263DB6BC69BD64ED8F3B4CB2363DAA299EBD600DB4BC6FDC58BD532DD6BC0448783D1EB823BC3A7FD0BC3475F0BC07C2D4BC7D1CA7BD2E31453DEF25343DF56F763D3CFBE1BB89C1A0BD26374F39B8CD323D0E01E4BCC4E48C3CD15A2B3DE367D1BC14F6F7BCB2F57DBBB7AA97BD83609EBDF7CE4BBD655668BD12E699BD0583123D1DB7B2BCEF5E623A42AF603D6FF197BCD8B1163DA448D13C1BB77D3D104D053D64F8683DF910673D988A54BDB2C4AE3D6D1DC73C2C1B5C3D10F4B13C601F4FBCBF7BB93CDC7820BDA2277E3CF76B0BBC05F7A93CFBB9333CABF9843D560126BD8D5E12BD0E86263C435561BDA9DED53BF38C85BDF46177BDF1D8863DD751B03DE45763BD74C4AEBD084AD13CE3CBB2BD2CA8833DB2AC183D04FC863DB31B4CBCB92B9B3D4B934DBD6B484FBDE2B47BBDC79CB43D47074BBD1BCBFA3CB712C23CD50E73BC4B78963DC7D15B3D123184BCFEE7A43D85D196BDC908E53CCA7A29BC7EEE87BC2F139F3C570921BD0D69673D118B6EBCE4322ABD939E0E3B876284BD183450BDA20EB83C7654A93D13382E3DEE63FFBC7B044FBD105DA6BD4F67A53D82CF4B3C2B85373DD6FF793C630AFC3CF9DB01BD734198BD3D7943BC254788BD058321BD7BA884BB2FBEB3BDCDD9A2BC958F5CBC159C4C3C2AB90DBDC52FA73D6C7E9E3DD72D48BD3CCB1ABCD81FCE3AE21D923CEC83AC3D6A77933C9F6217BD0BBE01BDB326BC3AD2EA943CFD483F3D2749353D8F827FBC998C4F3DF14FEDBC3616DEBBB400A7BD2C7081BD1C571DBDCF0E2A3D4B97F9BCCB9EEB3C6D8156BCD2C037BD896B8CBD6EBA4F3D3F0C23BD0B88A5BDDD65AABD94CB853DD3A7DBBC74869C3D811E993DAC214FBDA9A18B3B4F7753BD6171B5BC9750A6BDB49AA4BC3E9AE2BCACD16FBDE1F98DBDF95F603D16D5083DA291A83DB4FA933DE9A009BDD940893DA82281BAD4BDFA3CDFCC9ABD6CBBDC3CD39AB4BD32D8D7BC775BBC3B9A2C40BD76D4E83CA4921BBC0AC45CBBA9EA96BD63C55ABD5365ABBDE5346D3D16E90E3D549A95BD7C459E3B8A3E6DBD3A9973BDB0AAABBBCACB983DCDEE5BBD33B28B3D82128E3DFEA172BDA2F05EBDF9F5AFBDC02D5FBD3458153B3760CDB97400AABD0052293B655915BDFF426EBD3006223DB96109BD3D03963D60678C3D763E0CBD6040713D1BCB6E3C6DF7B83C3D69923DE63B543DBBF80E3C881DC83C11C38E3DEA8975BD5342F2BCD633963D240F58BD7DA66EBD82AC55BDA4DE92BDE804A1BDA695E6BC561C88BD6BBB7ABD0DF80B3DCB258FBD81564FBDE19A783C90A1AFBBB5E6D83C0D23903D5AC3BB3B913BB1BD050A72BD909E08BD41EF683DA647853C528F033DEB0CA9BDF8ABAF3C8E96A7BB7E714C3D4CB1843C795034BD2EDC9DBD47E4AABCCEC6B1B9B0917ABD69E6AB3DB260AC3DC98A6DBC20348B3C7F7B0CBD58A3863C3345AEBD7EBF8C3D054C803D597BE7BBB8CD1D3BD840A63D23C28BBD3BCB8A3C882262BD72BBB6BB52289DBD8EA5FC3CAFF05ABC9E9652BCEC629F3D12EC123D917763BC7D214C3C13D50ABD70F3AE3C1FD92BBD63E8A93D0AB099BB32DF99BD5C3D8DBD653C1B3D2B2D983D146B903B8B97943DD6768BBC4FD9823DF9ECACBDC50596BD6F75DD3C79CDED3CB64B603DE81714BDCC71533DAD1BAEBD72E866BCF9133ABD8B4D0C3D8796FCBB5429F7BA70497B3CAF0A0DBD607035BD593E67BDEEE285BDCBA9223D0663F7BC255FA0BD854B523DD1659D3C65E162BB0BCB8BBDE4E03E3D6752C13A2FD1673D163ED43B447026BCC04E793DC1C6933DCD302FBD1B556ABDA9BA9EBD242F3C3C0C96773D214961BC5F2E7A3D195AC43C9042ABBB96665F3DE41D6F3DA74D303DE8D43B3DB6F8123CC6ACA5BD8D3F6CBA64FF883D3F2E463D8289AB3DCA2F5CBDF879693B71FD053CF3E1793D741845BD01539B3D809B13BD66E6473D1918023DBA19013DEF31A53C1CA20EBD38FF7FBD7E30803CF1844F3D8AF228BBEF91B83A0F55A7BD2164953D8C8F17BD1874803D5CB7B43DFA8A443CAF65AA3C22104EBD2F56E2BC49C0813D0668E5BCE7B0B33D83FA31BDE53F7CBDD38949BDB71C33BDB50FFD3B4684AABD111C343D6E1BA23DFE6609BD5AA3403D857392BD1611AF3D1297583CE2DA953DAE8AECBCFAEB41BC84DD2EB991B60FBD27266D3D82CC5BBD2FA47ABDF299E43C62FC61BDA5D3A4BD69565BBD81FC523D8E54A639F63FA53DE323B9BC8061773C6CB6AFBB4E03003D4A6518BC31212E3D9E8F9B3D806F83BD0D97CF3B93E368BDFDD75DBC91AF8E3C9C4EAD3D8421083D7F59E7BA0E948ABC736A953DF0E40F3D4F09933D2FEB83BDC4705ABD63A851BD9D3EF63CA830ADBB361DFD3C1AC1A3BDF4B194BDE3B8783D3D82AE3D5CC09B3CCAE96DBDA36594BD072C7F3CBE5F143CBF9A5FBD1F6BDCB8E768AB3C91C7AFBB28620F3DDC6C9DBD3828A8BC41DA693DBA8848BDED6E74BCFB78393D97AC3BBCC6F3D73C2975693D080DDCBCEE14A03D27F2A23CF615073D299E8D3CDDB56F3D9B1DE03C2BC67E3D638FA43D17EE0C3C87AD333DF932213C40742BBD53E9B93C0D7794BDB0F77C3D65D26C3DBDA7763DC021D9BB89F7433DE2C2943D95F995BD1AA7733D74353BBD252F923DDF33A13D42C588BDFB357DBD6B621C3DCD72F33CD7781BBD754B2DBD9C8392BDD101E23CBA9DD73C2D41BBBC9DBB8CBD6FB2903DFBAEBA3CBE3BD8BCA58100BD05E39D3CC199EFBCC2F5AF3D660BA6BDB13B51BB4F6A61BDE8C506BCE322823D61C098BD292861BDF1E3393D77868DBDCE8EAA3C3ED01A3DCF598E3B9CD310BD088B593DE7A5AE3D338E89BDEABE4FBC8A493DBDF4947FBD34A70CBDAAC6653C5A5994BDF677213D360FE6BC2AA0A0BD90D0223D8B0D68BD4F0A26BCB61F873DAB10C03C99BADDBC5744563D47FD13BDE0AEDB3CDA9C38BD206D83BD64D59ABD9AF1EDBC2D3608BDC6DE7ABD88A857BD24181A3D5DE2A43D122326BD857C0ABC54D2A6BD19FD873C5DA21D3DF5BA8D3D1BBC823D663F453DD7AB9A3DB435853C2D287A3DD9CFAC3C516CCF3C0850A7BDB8B399BDFAD9D0BC2ED0343C823911BC5C5883BD8D6E2D3DBFD1973D7B3C3FBD6A26813CBE7580BD4135BD3B0C1374BD6D54AE3C15B759BD544E0CBDFEB993BD55F3B13C0ADF9DBBC99581BDEF2783BDB6C57FBD0D88A53DA1FC883C08E00BBDB6C78BBC6F318ABD609F503C4FC32E3DC6B31F3DE75CB43CA8D44FBB47B3083D487866BCA368183DB3336DBD275906BD73CE533D053397BD889780BDD7157FBC6B90763B9C8963BD55CEAABCE6BA97BC5887C63C035270BD6428A63DE4426B3D68CAE4BCD85A45BD6ED9B23CD028A6BD28B141BD6175DFBB109E243C4C4864BDD1DC37BDD77265BDE7FF793D44D4CA39DD9E1A3C45DFA2BDC795883D60D8523DFDD88EBD739B643D2119983D6F77B43DEE7452BD9B6D9C3D107396BD77DCA43B03E1933DCD7DC1BC1B7889BD40AF57BD39CF87BC8E7F913DDDB24A3DDDC8D2BCBA0479BC913B87BDAC299CBD4F21FFBCDE82033D539F9BBD248F853D32B71CBD028B143C1600AA3D5D7802BD53D707BDD55680BCFE4B7A3D9DA594BCCB7E203D2BAC6E3D9B7ABBBC1E67E5BC216E863D2B643F3D47F18F3B5CF4D93CB196CCBA7381F7BC8D4E513DAC0B8F3D20AFA83DB6BAA43D80E91C3CF9DE653CDFD09FBD1565AE3D983291BDF3E7ACBDEBD22C3DB60892BD818C0FBD92DFAABDA0EB343C2833B9BA083F48BC1A94813D18B3B23D7331163D9FBD1F3CAA19EEBB3BEA06BC3E504D3DDC37C63C200EA73D43E870BC28C10E3D849DC03C560544BC0BFD9EBCE873FB3BDCC83E3DE2DB0ABD1C1EB13D86C0AD3D8EE4C9BB72507A3D65C9133BAC4AF33C345E2C3C11388ABB51313C3D4378873D1DF8A83D88060DBD1A0CAB3D98EE903D4CBDF6BCB402B83C90A277BD69C93C3D391288BC916A7E3DCAF78BBD473B50BC50287FBC9EFD66BC0604E3BC2CA3293D7B8C9B3D7B96723DA383B03CBE8E013DC3E5A83D28D9A6BDD5B57DBC7BAE633D3DDB78BD92F3B13DD659EE3C8AD534BD2440ED3C342629BD7515CEBCB421A5BD33FFCEBBA71B553D177B89BB8A016DBDA0171BBDDD693E3D91BC37BC6B78A23DFBAACB3C5D1FB13D991DCCBCB311A0BC970BCCBC21F4BD3C21BFA13DDFB1A4BD64CDDFBC0497B83C588F4A3DA86F46BCFB3D0BBD77736EBC5124C8BC4BB7973DF596693C951620BDB0DF333DBDFC473D0348BEBC9047373DDAF3A33DC604913DE572973D71CAAF3D78E6AFBD9C60A5BDA4C12C3DD07E463D03615C3DB1A0D2BC84733FBC11A2533D5C3B71BDA17C2E3D176C6B3DE9FD413DEBC91DBDCA7713BDD3CECBBCF4224F3C534BD33C41A65CBCFCC70C3D5AA65C3DBAEDD13CDE151D3A4584AD3B6B1797BD7D6B2DBD4DC79A3CCE4408BC6FB29FBD15A1923D3CB1B3BD6652AD3D84716B3D7A64203D460FC5BCE5D562BD6FBB403C5248993D5614553B181D3D3DE531883D49168A3DFF637B3DFCC73CBDF4B78D3D9952743DED23643C7262823DE45F373CB03EECBC8DC6EEBB298DA1BDDA29EC3CEB084E3DCDA00F3D429F433D58DB923C76B0AFBDC8C5FABC898DA83DB52CA2BD18029F3D7A938DBDA250A2BD8C4097BD126E4D3DDB221ABDB30D423C168E653D628773BD905AA73C9A423D3C22237FBD89999ABD9122383D1F05B2BDEBF35FBD3E8B82BDEDA9A43CBD4BD0BC1C660DBDB9A10CBC9A758CBD2E517D3D9122813B75CB5BBD8587B13D058650BD7FCE8D3D4E598DBD51467CBD196F90BC0709A53D4DDB40BD2B5867BD202D96BDE30686BDE25C55BD68E88D3C55B57E3D212E923D14963E3D7B14903C4D4A1EBCEE761BBDB7B5C83C56C755BD9227ED3C0B0B8CBDB797BABC6BD3903CAA43973C8F8D9BBD426DFFBB19F419BD8BBC653DE85251BDB0099FBD77A3543CFD13803C51AC3D3D21208C3D5382643DFA9BAC3DC5E99B3C254A0D3CF418FBBA5B17B1BB1CB657BD51159B3DF6014FBD0D4EB3BDB509273D7D558A3DEA6182BB57F5E0BC2295B0BD0A940D3C1FFC993D2CCE2B3D9213963DC54A32BCE12E09BD27FE9D3C7B29AF3DE243973C1F7DCD3CA52D8CBC88A9133C77B070BDE900213D7997893DE0AB67BB5BE9923D50188DBD26F41ABD8679823D78BEB1BD7EFCF2BC3E687F3D968C5C3D3C93973C425A243DDC16D03CE4E4B1BDA6CA3ABD885A1C3C9088B0BCAF9E41BC6CB8263D0A6812BD8A794DBC550D1ABCB4CDEB39AE2F45BD20F930BC610B5BBDE9C2B13D92AFD53C8F34023D582CF93C180391BD0E41CABC5E66B2BCA3E3A9BD054D89BCB483B0BC6A8D733DA9BE2BBCB1FF66BBDD4A5FBD4BA886BD08C83C3D1297ABBD33608DBD9CC4AA3DA779F73C5754643DA81E163D2CE19ABDC1AD1F3D584CF43CC34BD8BA573FEA3C5DD0CCBC34C4C1BCF595CD390CCFD73C2B9FA73D05F740BD16B109BD07114A3DB7D51BBD1F133A3DDD1473BD47BF1BBBAFDD6F3C4CFCBFBCE9FF8ABD12656E3D0CBC943D58713CBD058316BDB932A2BC36DB033D8FA705BD97DB11BDCA5351BD77AA9BBDF3D7A1BC9A3C653CB2CE443DDA3F15BC58654B3D334C013BDBD9633C9CD71A3D448520BD72D6ACBDB6929B3D62EC61BC7B2A89BD2A2C9DBCF43B883D53BF773D22F6AD3DFC7D46BD532285BD366A15BDE7A1463C2672663D95209EBD0A4A50BBCA04273D1575C8BCEC9FA43DFD5155BC66972ABC4600183DA6898ABB3771763CA225983D2AE7513A3827ADBDF5288CBDB054703DB36A99BC9DD6A03D1AC47ABBE3652D3DBEBB603D3F2F633DEAF6133C664E333DA1DE153D4CA61D3CEB95E53B200FBBBC4E5B8FBC8ECDE6BCE1C9BD3C044F943DFA42203DC9FF8A3DB56E933D76B4CFBCEFD2CB3C976E9F3D24AE75BCBF6F80BD3B61823D28185EBD29AD863D4E7C83BD5E6A783D882A3ABDD4213EBCC1C10EBC1F5D88BDE9BD55BDB11B213DF42073BBE3C7903B36EAC13CBC74ADBCE6E99FBD6F7F87BC6DE685BD18B1623DE052873DCA64413BC36BF9BC9E3FA3BD1DA1C13CC85A903D0B3D8DBCC635373DABBFCABBE05F843D012C1CBDB09B893DB7A6883D6AC99EBD13D5933D215D503CC2E154BD2185753B2EE1883D2431793CEBF77A3D7C6EA4BC345B4F3DBEEA5E3D094985BDD2739DBD6E4DDF3B64370CBB3CFF78BDF2C68E3C02E3903D62C5C83C10D59E3D312391BDA4FB98BDC7F5633DBC083CBCF82828BD508AAB3CED049CBA8EF4E6BCCE844ABD27FFB3BD27391C3DC981553DBB70F6BC89F201BD270E893C017A713D504C96BD40A0C1BC3293FB3B75C22EBD7E605ABD46D414BD0239273D5D29483D28BD6F3BC32F6E3B348EE639EC0447BD60F79CBCF748133C9914DABCB2DB923C83EC7B3D8B4F4B3D827999BD521865BCC8E1083C44E0413D29523DBC1856893D415D563DEE169CBD49A047BCC5860D3DFD3F92BD371997BD6F464E3D5084103DCFCB363D41D88F3D61F2793D6FC5103DA59DC53C0214FF3C5DEDD73B00C888BD260EC9BCD022A1BD097E4B3DCC2CE2BC00EF593D2B4360BD10633D3D39E60CBC336B29BD54DB713B658A153D17568DBD13F5603DC8D5F1BC248400BDC71E513D5F72793C45E25CBC745AABBDBF53C63CE41AB3BD4C5407BDF8B7A13D579E47BDD1EEA43D3C5177BC2E460BBDDF3E383DDFFFAFBC7845643DA24C0BBBEFD1263D0CBF843D208F833D439505BDF430B23DE149963D1933A13DFAF147BD7E5D46BCB5F5223D678C9FBD9499AB3D5917933D0DC387BC8460343D1B0B69BD26C5E83C599D8F3D1DBC02BC772D893DD569973D8A6DEFBCC52580BD38CF953C921BAD3D10FB103D67C3D3BCD4694FBD05AF933DFBA333BD8A9DFFBCF9F9A63D0918413D77CC2ABD53545F3D859D4ABD1D4AA0BC4261EEBC227F6ABD9A72403DEC22333D82934CBBC92649BCFD33AEBB234AAC3A1C424F3B44C807BDA32A9E3DBF26B43D49D2B4BD20469E3DA4FA753D6D1DA2BDA8FB6D3C1154B4BDE5B9ADBD4D30B13DE0A659BDD7D790BC32A39E3D2250A9BDFB2695BD33F5913B2C506FBC6235A73D0C69573D786084BD6A8C893D0F4833BD77BB883D7222A5BD9644443D82AA553D1330D03CC47311BD0E1BE2BB3EDB96BD54589F3CDD6800BDD182ADBDBEA569BDD4CCE1BC9E1413BD602D1ABCB5079FBDF5C466BD3DD0A6BD2C4527BDF4F115BC8764273D8AD9D8BB14E8ED3CD030F03C4013DEBC6A85453DB25292BC9BECF6BC09BC7A3DC58A8EBD8355643B93CA0BBDBD02053DAE871DBD49F99BBD85724E3D5049A53C7032973D4542913DEDB09E3DA58FA63C5002833D337C9E3DF2A091BCA7B7C9BB081BAB3D4AB88B3D594284BC55C4C6BC056AAD3C4AAF98BD93B7AF3D8AE6E3BC88D2AA3CDFC769BD84CF37BDEA1E88BD28E195BDE4AE343D6E039ABDA2D0133DAA12003D5F209BBD2EE6B0BDAA11203DC7F848BCE5578ABD9B0684BD8A85B3BD82DCB9BCEC2098BDB6F6293D3E8586BD2280453DC56073BC3768383BA09BA0BD1AE48CBAF3376C3C826B27BBA76575BDEC86533D948F953C662E8C3D9D9246BAF52D643D24EA923DC57E5D3DC04BA43D03D9013D39D5A7BC67F6D33BB8BF5ABC4864623D03DE4E3C52FEB2BD1524273DE2EA11BD5AA07C3D7E3DC23CD00E883DB83F1B3D5BDC28BCC47526BD996693BC75D0E03CFEF33A3D48A73CBDD8679ABDADF8603D4786B33D208A983D8331083DF4049B3B8E727E3D8C31CDBAFD133F3DD0FB27BDB90BD93C8E1C62BDE5005DBCA8113B3D256226BD355A81BDB56B753D79EB64BD219624BD57F1A43D5788AC3C46E888BD7560C9BC65B2E23C668920BCAE7F153D186BEEBC3D88313D4259813D62E4B0BD90DB923DB2A9A93D3F4C8D3C22C89D3D958F47BB96A75FBDD158863D687BA3BD6382853D51B34CBD822D59BCBE9F56BC2E78C3BA819495BD07E89E3CC993353AA98916BDD33D90BDF9E101BDB418183D9BC92ABD7DE6B23C2C3D83BDA1720D3C5628D5BCA869203DED210C3DBC9DB33DC71251BDF5A5C43C79B880BD0BEE9BBD800568BD9249EEBBBEEA123C780E903C7DF58C3D7100A13D33326F3D48DA963AD1E074BC7B7F823C42D0453D4CC6ECBC417F66BD298CFD3A36C9CF3C4333883D0557953D5E37853D0B1134BCFCF29FBCB5ED53BD2F5B9DBD80ADAF3D9B6E98BD135E7BBD3A6B28BD573EEFBC7CE9A63DF4D2063DA4CCB4BDB55E8C3D3DA82A3CF60D423DFD601F3C7F38383D9590153D7A0181BD33F85ABDA5B0D23CEDF314BDE3F2F9BB796FAE3C00C07DBC58466EBD47D84C3C1E1B9F3B758E4FBD7CE7803D8F197ABCFD472FBD7FE96CBDE0CEBD3BEEDDBC3CAC45A23DA067CC3C157FD639B833A73DE32311BD2D3AD83B91D6ADBDDF62AD3D4E477B3D9B2C813D16418ABD29E1EDBC6EFDB13D73E51FBDD12C71BD811F6BBD60F00A3DC3E4AFBDDEEC3C3B375A7A3C4041ABBD604D153D2CFF38BD39571F3B34D2563D38037CBD37195A3DB0178FBDAB5CAE3DF682A63BCFAC8C3D06A4983CF9E11E3C5160A1BDCFA7ADBDCB32A6BCAC584BBC8392C03C285589BD91B239BC90897FBD39DC0ABD94C2763DBF99083DCE95A8BD5F6BEBBC8A0B62BDCAF68CBDE0D3ACBDEBF86DBC29EA85BD9BD2B43DA8F98C3DEEEF073D251A08BD6E728EBD185445BD2DF505BD214D33BC57912D3D8A488CBB1564883DA43535BDC56E14BCD5A325BD0A64C9BCA0DF97BC103582BDEC20ACBD4017303CD5804DBD6BF3C2BC65FA78BD23A49E3D845C21BCAAC358BCD44F91BC5E4E483C70BA2CBC33B7963D8C17B2BC290647BDB78E2CBDB5625D3DB8D0ABBD4FF0303D63732D3DCA0D4E3DF283173D657969BDB24D873DAD2A973D5D572EBDC1A7343D8B2A3C3D2504923DBF250C3DB1FD533D4B87BFBC0A539ABDF30E65BD399483BC17FDB7BBB88A6BBD38ED8FBDAFCD1B3D6304DDBC912429BCDC1D803D17531DBD7A879A3D067B203D1EEF4D3DC93982BDAE92053D126230BDB85D0C3DDEB07ABD114042BDA4D1A03DB1B2AEBD3BD4223D3671CD3CF25C603DA4F88EBC958FE4BC1225913D38222E3DF39DA03DE38616BC93966FBD48A14B3D52C725BDA1B73B3D5A44323D2D242E3D2473B13DC1C6FA3B8070233DDD1DAFBA7D7E9F3CC78F6FBD8C4B7DBDA1E796BD99F49A3DEEC08BBCCE8680BD0C415C3D7AB6ADBC1673A5BD556EEBBBD554023CB18B90BDBB0D993D056E0D3DB820983D4F82B1BD942C14BDBB4DADBD2CEE1E3D76A97FBD4FBF02BD86CB09BCB5B1D23C537CA63D5D09A53B5A449BBD8E2B69BD3EEB383DC78838BD526D10BDC03B8FBC153932BD4CACA73C986E513DC08C1D3DB36058BDD50DB1BD7899AFBD99FF0F3DB2ECD83C8A677E3C41635CBCEA81A1BDFD5C5A3CB29BAEBD229AF33C6388823DC5DDA8BC2FF28C3DEE1182BD4E48FC3B2AB4513DFCCD3ABBBF998ABD6A7D0FBD57D5AABDF8BB35BD872FAA3DA373C1BB73FC84BC85C6A33D9203A8BD5E0CDCBAB67F76BCCCE647BD0183AE3C3EAA14BD52E2A83D7B43553D80A8863DA73B17BDB6BC2CBDE61D94BD4EBF61BD7333AB3BFB412DBDBDCC16BDD1119FBC2C4D033D49B57CBDF9C5873D282535BD20948BBDDFC0163C4DC6E7BB03F404BC71399E3CF55D8DBDA80F4EBD946495B9F60CA4BDA3DEA73C5C28893D147D863D3A6A5C3D7E84853DDE1D0A3D3229F33C50E2893DA322283D8AC897BD409D7F3DAE1EA23C8AE701BDF6E8993BB1C1223C6BE25D3C63A3A3BD266A79BCEDBF74BDB3CEB03D3221EFBCFFA29EBDAEFF36BDF392453CE0BCB3BC014652BC29EEA93DCA21413C9BC4F7BC3ABBD7BC3E401F3DAC3A17BDE7ACCBBB7EC911BDE318933DAC6F7E3C6C8DF8BC313AB7BBD4926BBD242993BD765C21BD2909783D67A465BDACEC0DBD24811BBC6DC4F73C26DE68BD639C75BDCFD32F3D52F89BBD425D6A3D63DF68BD5CCA94BD6BA69F3DCE4A013D67AB823D9E8512BD925D67BD32AC0CBC8865DC3C3B239CBDA2D08B3DC0BE1ABD7983163D8D36F13CD4BF9FBDFC5B0ABDE73D2D3D055A3ABC87FBACBDE1A476BC199F183D3CE0543C13DC313DC1B413BD1641EEBC77E6B33DCB0659BC20F9B13DCF559FBDD5D8583CD4600FBD8C9D8CBD8C945D3D54B3B1BDE44885BD470422BDA0CFA33D561F30BDA5E62BBD0D3B55BCD89917BDA02D793DDCE4CE3BEABB35BC54C2123D219F7BBB2C38CE3C8B5130BC160D8CBD564B79BD22EAAABC1D98873D84B1A3BD174F453D6C741FBDA112ACBD02FAAE3DC4C4953C2D80AABC4928B0BD08CEECBBA35D1E3D4D151C3DBA30653D497C263C9E7AA4BD66C69D3DDEEF95BD99BE5F3D382FF93C30FE86BC0C789B3D84AC8E3C9112B83B693053BC029316BD530A123CCC6C67BD25B3A23D2B7394BC6E7982BD68C7E73CBDDF38BDEC2A8F3DB38D043C0B23AD3C8F6CA2BDC81FCDBB6CDA5C3DCF22F3BCACC680BD61DB11BD82269A3DE812243D97A99DBDA2A9253D73C348BD730D45BD7A983CBDD71D53BD32BB0D3D598C6EBD4EB03D3D6F3C1E3D56582C3D5590323C1D46F03CCCFE53BC41D1773DEE7312BDC21AA2BD750C083CD18344BA25FBDD3C7FD532BD85704A3C75F5673CA4B3D4BCE91F80BD39449B3D95288EBD915FB1BC27F0F83C42BEA7BD7747583D1669AB3D0DE5C7BCA8B2BDBCB1D6983BAD98643DDD0CD23CF19BADBD758D7EBC40C6343D256AA23C1FA763BCAEB6813D93A8AD3D1760F63CEAB5A2BC5A4C34BC3D0E183DC96420BDC2BF993DD48C17BDB793F93C25D5A93DE5BE8C3D77D7A2BDA5957CBD29D982BD913E8EBD044865BDEB4D5EBD593070BD289C75BCADB2B4BDAD65EABCB9EA853DD183C4BBB6198D3D276921BDAE017CBCB04A0BBB4CC2143DBC3730BD8CC985BD287399BDA958AABD0FB672BD7EC378BD4AC824BDC825623DCD2CF63C6EBAA63D1538893DFB7589BDE6BA7A3D5C66BC3C0DB7533D47A092BD1A33AA3DE5FD76BD78D8CDBCDE4C11BDC972AE3C340E163D6D13A9BD14DFE6BB4795093DB833903D14A908BD17A9B2BD453CB2BDA01908BB52237BBD1A43843D83657B3D53F3943D5A989C3DFFE5A4BDB499033C7859073D492559BD32A6EBBB2FFA933A957B9ABDB452E4BC59B7D1BCDA93F0BCAC11143DA05C4FBDD8B6263A131099BD6411313CABB250BD91DF1ABD08EEDFBC8E3C7F3BBAA8C33CAAF11A3DBCAC41BB43C7FE3C63974EBC31E3A3BDD5DD61BDCD4E193D2F07D63C8993A1BD4476783D61E21BBDF5B4C1BB2788B73CF78F85BDA0DB283DC211543C24639CBDB73017BD0A6B9FBDC19A85BC2A812B3DEDB1B13CF487A83DC6D874BAF8D5D6BBEE7D5F3D0F185EBD0B14E73C821843BD422F3DBD58BE61BD23D462BDEFD5A73DBF8822BD67F2AABDFA2988BCAE84B1BD501225BDFBAF6EBDC34DA4BD820DC93B99A26ABDB9F27F3D650E2FBC1B08F5BC0676A7BDC95EC43C85A6033C75AA26BDE135A33ABB0F843D4617A23DD4073ABD4CF5163DED2083BD0B556DBD5148CBBB6F428FBDBFF4613D1E878EBD57B76EBDFDDEA9BD7B0A92BCDADE173B3CF8803DEFB3893D792B573D78F5F13C6CB820BA7B4C17BDF6B89ABC499C89BDE573AA3D96A8573D272F3A3D9C7ABFBC102B8EBD8795E83C922D3CBDAD94C9BCBDA09E3DBE5112BCE3B5123C3995563D393D1F3D263B0A3DC2F69FBD75BF513D82BF89BDC662AFBD5171A6BD25869D3CB89B4C3DDE9FA73D9640ECBC4823A13DA0EB853DA469E0BCCA8E403D6A41A2BD3A29C73ACEDBA03DB845173CACE802BDC90AA5BD8FBE69BDCE01563D05957D3D02D09A3CB0A760BC45D89FBBF508853DED2D09BBA4B5873D03E389BCB472F0BA7EB4973C30AB65BD41AB543D4D8A8C3CC2334BBD12F418BDF1D916BD60FB6C3D3836323C2A37FF3BBE2D41BD921D0EBCE55D5E3C4AFA90BD59A58C3B153A26BD9DB2633DCE02073C4CF3883DAFA37FBDEF9A0FBD6B6CFFBCAB5099BBD49475BD84BB93BC9ADDBBBC265EE03C1AE4DCBC038F6C3CE49E67BDCF0F84BDB2B2033D2E1247BD541C50BDAF5025BDE8819EBD70F61CBD01F997BD1F02CE3CB9A5A6BDCA99B33DA20E23BA11A4F53B49F912BD214C433DED6EA0BDF18B5BBD69141DBC1D23A53DEC8980BDB9A9973DA4678EBDD176CE3A7F03303B79E061BDD07283BCE6EC803D8F3D7FBD6374FCBC3C97F83CD486B03D4320A43C5D444D3DDAC7273D2AAEA63D1999883D4E92E33C45108EBC80169BBD9A376D3D4B1E53BB0646703DE43F92B9B4BA753DE3B2A53DB23A60BD42458E3DE0B19FBD88DB973D2D6CB03D95E32C3B7516FB3C0A0F263C5EFA38BD78C105BC210A933DA19DA1BDC7B699BCD3BF393C0CC291BD3AAB25BDB8D4393D1E53A23D9D0E66BCA74B713C262982BC11940EBD52C0963C403C243D656343BD1B301CBD99EF393CAC4F2CBD350DBFBCBFBEA03DD21CEF38DCA986BD194C8D3DC0B814BDF4981ABD253F61BC0E32C93C7468B3BDBBFD7CBDDC2F8ABD9C7E04BD1B47A83D422268BD03A2103D018D89BD02CECF3C5DB2513DAE86873C1A65D1BC0C07A1BD9635E3BC08B3963D67816D3D61A3AD3D3249F23C9A4C67BD171CAEBD854376BBF1EB373BFEFF2F3D314DC03CEC5243BDD6E1343D1413A73DF0797BBD1D47B23D9464E5BC445E6C3D56C5963DBBB3823D1042D43B700E843D2DE377BD1DC357BD24E3863C9F34143D16D687BDDBFD5CBD758D9DBBFDF06CBDCB05893D6AA1B6BC7B07A63D7486B2BD21F50A3A3A7014BDEAFC06BDEC64EBBC25A1653C4D94533D885ACEB98065403D6DC427BD40357FBDECCF63BDFB24953C994328BDE2ECC53BF1D5ADBDE8843F3DD4A6213D927BB03D6E50A5BB53AD753DD7ACA6BD807148BB017142BC7D8F003CE96BF23C640F893DA99CC73B04D2623D2C09413C95F9033DF20816BDF39D9D3D7BC68D3D5E21703D551F983DFB89163C6082303C0C3488BD2F5271BDBDC97A3DB8185ABD9B11F53B2EC685BD725F923C395B62BB00E650BD5A9013BDC08FBCBC44521E3D88ACAE3DEFDE623D055F153D6292A73DA0AD3CBDA87E2BBD4471953D3369213B6A74A83DE184293D5CA5973DE6D449BD817844BA1E0E9C3D0F82473D65694E3D9F1A713DDC9EB43BD2B9FB3BE587E83CB61468BDB9CB613DA1DE52BDB00E58BC99AB02BDC37B3A3D7E402A3DA2EC79BDB99D10BDB97A14BDFA5F5D3D25AD95BC9F1AF5BCDAB4813DAB74A83DEFEA093DAB0DE1BC9664203D9A609D3CCD4B40BC5EE5613D9AA59E3DE5A412BD705ACB3C71EA4EBDE23A9DBCF78D85BD7B99103DF30F4B3D1563A03DA80A8D3D07591C3D8FD89A3DF35F983D320B953C22EB183D44F5B0BD1CCF493DBBE4E73CCC7454BDCCC5923D989E34BC7BDBE5BB65484538DE9B713BBC6DA1BD42185CBD7998783DAB6EB43CE3DB9D3DB5D523BD05C084BD58D6883D0728D5BC4F81ADBCD30D06BD85C30E3B8FCB0F3D51699A3D6D888E3D9F00EB3C71113CBDD442ABBC7713A7BDD972313D8E13CA3C605F38BBD9A7B0BD5448493C58B3583DE590963D7E4417BDB02D003DF6FB86BD383D8B3DD575EE3CF142A23DF7A3623D90B583BD9B63DCBB89B714BD47F48DBDAA119EBC5D6DB43D13AFA03DF0369B3D2E5D7F3D5F521DBC91AFF7BC2EBA4C3DE441AABD7F897D3DDAB9E03B3044C2BC75148C3D429119BD9662803BF0A88EBD95105DBAE635843D413C833D02BB8B3D602F5BBD07D092BCB7FCFEBC5D4D63BC94D9DD3B76C54ABC34E14C3D36C74DBD929078BD4CB23EBD8BF2A5BD15883CBDA05107BD4B92A5BDBD3F093CB897113D884062BD3C26033D86AA703D807460BD76391A3D058DCFBC986E96BD02794DBD627DB4BD51C58EBD99BA8FBD06DCABBDDABD5CBC30EC81BDB790A63D1B698DBD1E02A5BDA673083D1ABB813D8C3ACCBCC51E4EBDEEAFF13CFB61A3BD1011843DF42CAE3DD6E908BD1E48173D1E10AA3D2B1C6DBD35C227BD7EE554BD6DF38EBBC1C84C3D3055193D557C02BDAC1351BDC0CF83BD07A19D3DBBF16E3DC680323A91B947BDC9E32B3CCEEEAABD7DEBA3BD72DE0CB9AB7515BD80C4743D585A073DB34EE13CB3DE063CF1F6123CE6E08EBDBFC7AEBD18AE61BD925B74BD0016393D3934143DD777013D11DE85BDDB1281BD89BAAA3BB09AABBC7725763D26E519BD8BBE0FBBB3B47CBDF1728ABD082D013D7097943D47C8483DF3D5803D49DF4B3DCC145E3A1C11ABBCAB3CA13D597AAD3C3924C53CEF4A00BD5CC3A0BD50CEB23D5C78ECBC127E3ABDA3CB523D6B9583BBAF48983D3C7D6EBC2532A73D31735F3D087628BD6FCB443DACF426BCED0F0CBD3E9E863D1370F93C1A65AFBD22A2753D7AE0C73CD074AC3D13DD82BD8EA7B6BCD25DA6BD8712AF3C1070E6BB629E69BAF99486BD993840BD497C9DBDCF888D3DFC7297BD1FA4B83CDB06A23D14365EBC429282BDBB29A9BDA0A9BCBC78409EBCD8409EBD43C1A03C307568BD6129A8BDF1F6123CCC2A73BDEA25BEBCA0AD913D758A1C3DE40EAD3C07565EBBF848983DBC0324BC40806A3D0EF071BCC88D10BD4F0DAA3D61385F3DB8AE9A3D23DE4B3B441A7A3DA96191BC212E0DBD5B5E54BDD8D66DBA73B6473D705F703C0F1D82BD4212F33CF35B8ABB97A7E2BB6AAF96BC71A28E3D4680203DF4ED933D7A6118BD6DDCA9BDB9A530BD9329033DFF00973D54D4873B6E5098BBE01537BD2BB19B3D09B3C1BCB0B794BA59C89FBDAAD8D2BC453FB43DC7705C3ABE5E69BDE971A13D6035373D5805423D1539F73C5C4B863D15609BBDE3E5F6BCC7B197BD9DD78D3B50115D3D85B72E3D8DD490BD3369D33CBB812D3D3359D8BB995826BD8B71593DA2C5863DF490383D2CBA8A3CC8AB53BD7E4E1DBDE89A903D7B82273DA88A98BDE9FD73BD2174D53C405A1D3DA01D71BDC16099BCAEFA3B3C5FBB1E3DDE6A0C3D0E0EB53C69CFF3BC1D4A70BDD2CB27BDCE60873C24EE483D9AA50CBDFD32F63B7D93A6BCDCACE4BC7AC7733C4DC393BD21F7A13DE68EA9BCEA0486BDBF03D0BC695CC63CD377043C3ABC153D41133EBDB87686BDFE5D863DE322733D4DEFA43DE39DEBBCEBFE9FBDE7CAA73C2C90A33D4C9F633DB7868FBD07B030BD57C8403D058895BC9B6350BD4A7D20BCCEE4933D07FE44BDFAAE953CA5E7F8BCE5B17E3D2FFC333DD52AEEBC5A939BBD5EAB19BD439E863A4DDEC13CDDCD513DCD4FA73D15D87B3DF834AEBDF8BFB33CE251503D3F9EE6BCF0F4903DA53E05BD3DD7193D30D452BD1B3A693D6065A63D419CB03D3522523D3DB28CBDFF4E9D3D7D7520BDC0E0F43C188B493D9D8F19BD29F0B33C3E2A8C3D5F34E73CC2CF98BDA8EB93BD2BBD3E3DFB62AFBCE0F350BD8D97333D9C905C3D38A85A3D78FF8FBD81FEFA3CA3F2653B64C5663D4A82F33C249A953C4E28A33DBBB8983C820DE6B8D3179CBD03F4043D447A9D3DD1346FBD41646C3D1280183A0E77AD3D4E0E463D65E3A53D5836293DE2308C3D6118343CBA6904BDBE94A23D22353B3DCA081DBC9FCBAABDCEF4FA3BD1F6ACBD08368ABBF162AF3DF115A4BBDC0029BD8063463D49709D3DCBE650BCA1BC1A3D28BA9BBD3038A03D943F27BC3768A43DE158B43D34C2F1BC54635F3DB7B049BC37269A378208A3BDA69A02BDF86E64BB92B79A3D1E027B3D06FB7CBCBE3453BD628E823DBACE6A3D2F71BD3BDB1680BD0E72B3BC5D3CBA3C566F8D3DA673FE3C2830A8BD225717BC0EDD793DEDE246BD52EE86BCD63EAE3D07E3E73C2559063CA801A03C09EA27BD127D613DFBBA90BA8629283D0A7B95BD560089BDC90EA5BD872E973D8AD8D93C653C17BDB54CD1BCD6D3FA3C3A3A243C1E70073D4C2682BC96F78DBC0664193CE539A03C1A6628BD18338C3DB62F97BD7B04BABCF4B4943D33838D3C280E50BC132162BD8BD9463D4D1E96BC529337BD6A482CBCDC8B7B3B7230BC3C04CB723D73DD583DA6811DBDE5522F3B0D21BA3C96E194BD556FA3BC3F4AB5BA1969383CC8F5A03D74186B3D932069BD81B081BD833F583D303C4F3C85F98ABD6589103CBA38303D77C66EBD8F62A83D5CFE1C3DC7EE2BBD2B28BA3C8F4245BBC62CD63C24B594BDCA8E03BD67C836BDE11583BD247D60BDDB1682BD60DB0ABD4BC6713B86A5B6BB5DF77F3DAD9603BD29EE9DBD2BCB4DBDFCB0C4BCC0ECE73B2FE8B43D1B1B5ABD82F1963D17DCEF3B578E7ABDCC452C3D7E8F6FBDF7382FBD4992973DCB2C9B3D90EBC0BCA8C7E6BBC139803DAB252ABDD23A29BD414AB13D868616BD1EA7683CDE3F2DBDF8D15ABD1195073D4A6F893C9B0E0D3D0A2D863D033673BD7F05A4BD24CDE93CB996DB3C6F9ACFBCD883ADBD45D825BD56099EBCA3A04E3D8E20953DDD199ABD1C46513DEAD9863DDA78283D8E5B03BDBE24B43DDDF976BDB785B23D0D5972BDCFAC37BD008B8C3DABCF63BDF5828D3C675D5F3DB7C451BDA481B13DC779133D3D6814BD2E6EA03D5BCCA33D58842C3C5EAEA03C3F755FBDBAD65B3D8A478F3D77A6EA3C62259E3DB87E0C3C310FD9BBF5CF35BD7C3FB2BD0ED94B3CAF49B7BC3ECC40BD70BD74BD5D81D5BCEBF4643C0D6E0EBC2201E23CB5DD90BD60C7A4BDCCCF233D17B10ABD60587F3D8408C43B2102B0BDEE39A7BD06F3B03D16EF82BD69270DBC30B2C2BB07D3763DBF29343C5C454DBD4F3243BCA85A2EBC1DE7633DC19AEE3C6F6CA83CE005F0BCDA66AA3CC53E263C1ED519BCE1D182BC2EC97F3CC696B33DC2A0CE3CA4D6A33DC75C1DBDFBF6963D4AC9E2BC9E9A5C3D2094AF3C488A20BD71F4363D8669AF3974F3B3BD2827F83CA70ECEBC987274BBDC8F843D5112143D97EFFEBC4B7482BDD9E121BC2851F5BC72CD8ABD417F253D8A1F73BB9CD8413DCD486D3D58E85A3D1F6C95BD7827A83DA36967BDC41036BD70B87EBD859BDF3CCF5C373DDB8C883D0BD8A43BC0D3A13D4AE55D3CB9E702BD942C993D3C61253DEA5C36BCDFDAEC3C877A4ABD02B58D3CEC89ADBD1813D63CA6CC643DF9B15CBDC6AB3F3DDD3137BD5138A63D8A8712BDA288793D06DD92BDFE85E0BC58E566BD8880213AD6D3413D289B113DBF15BDBCF2C61F3CDA8D923DA61F0A3DF8D1F8BCD605A53D315DEEBCF2AD89BDC3CBD63CABBD89BD85CF49BC82FF4ABDC1009B3CF6F68DBD00BB88BDA522803D947E9F3C350F6DBD33457E3C8A80A43B6A7403BD0CBD943D4DE1423D3999BDBAABF41CBD2E27C1BC234990BC9A784FBDB48173BD34B08EBDA045463DEEB4AFBD1F078A3D86E391BC4F1CB03D3AF121BCFDC74C3DB11397BDF07490BD14C4113DE0D4173DE40AA7BD5FD93B3D044CAB3D2FEF0C3D26D7263D5EEE94BDECB5C23C36D30E3DCAAE74BC7B4FF93C87240B3D7F14E93B4A4E46BDFF438ABB06A391BDF32F983C00ED0BBD72456F3D35CC10BD3AF274BB1EF6283DA65A143D9CA66A3D4372093DE92668BD308A1DBB7C80E1BCFFC04EBD9F35A53DD178CCBBF139983DF6112DBDAB44E5BC46AF8F3C88238BBC6204AFBC5FE28CBD85D7AB3C152A18BD85B73FBD7AC1803DC975403C86F299BDFDCDA4BD0A01A23D0D6A993D2B5516BC5B09863D861FABBDEE76DEBC35B993BD968E9D3DEAA1D5BCB7DE1ABD0A5A21BC008A583D9653AA3C9AB85ABDFAEA183D902199BD2B52503B233706BD990E9BBD6FC602BDAEAD293DCEF18F3DEFC3B2BDEFE28F3DA32990BD03C435BDA9199EBD942E8BBD12F502BDEB5186BD1892F63C4C5EB33C5822863DB8626E3D15E036BCF62052BD49F8653DCC6351BD347006BDA6F08FBD6F9014BDC357DC3C015BBCBCF0CF99BD71CE5F3DAB648C3D1C7D923D2B93723DA45ADF3C522F443DDE53AF3B47F99F3D7E8E873DC47E38BD0296AA3D5B2FA8BC72708E3D4B8C85BD286F9E3D5A1A41BD30C569BC5629AF3DEA4B76BDBDC56F3DF5549CBD4D70283DD6267A3DDEE2953D9E006C3BF7086BBD5AAD91BDE061D5BC793796BC176A563C07AB643CFAD3743D58EADEBC4EAEB03C16EAFA3C58323A3D45AB363C74DD963D74AEABBDF1927BBD53D3AE3DE235903D8A6A59BCCDF3563D07CC75BD3A16A6BD46C6E4BC5268913DF22F9F3D45DCA23DE5A073BC7CD76DBDBD41DBBCB3382DBDF49C873D0B8D5B3C69EB913D8ACAC2BCAC52923CFB23B83ABDFE67BC1758A1BD0F73B13CB5F13E3DB2846DBD5FBD8A3DC38953BDF466FCBC8422953D9B12EC3CDA9B783D33E62ABDB44A583C527A9CBD81E6983D80F4733D30D633BD5D0FA8BD91C579BD44D9973D83D788BD36499F3D1751B43D0DC6473D26AD363D2E58503CD4878ABD275623BD2703DC3C17448A3D8457EE3CF628863DD97E11BD4415AF3D01D92F3DEB0F44BD04050F3CDA1D6EBD0AAB95BD79F1F5BC7DC3A9BD1B285BBD635C24BBA5247F3C658E3F3D9BDDB1BD27E19B3D101786BDA6A45ABD9ED85DBDEC930ABDC5A243BDC1C465BD8928C83C954135BC5297933C9C948E3D7A0590BDB355363DF96A973B93E8EB3A8F03ADBDF9CCA9BD8795903D81E63E3D584D8B3D32C9823D7B7DE5BC75A8A8BD054287BDEB539EBD1974203CF4D2963D424AA43DFA7F98BDD07A3ABDEDA122BD015338BC4BA454BD69509C3B69625F3D8965263D02830A3D1A004C3D3DE2933DF620E93B162B94BDF99F333DDDDB44BDEA5DD6BC0E3F7A3D5620D9BC79F4923D726413BD95EE923D3AA5E63CAE519EBBFF44EE3C8E9F883C1EFEACBDD1DD163BAA7806BD9FF5A53D3B99953D68C3043D21470B3D0358DB3C48AD103D637996BD5B09AB3D9A5E993DD5E9BD3A3E2CA03DF1BF4BBD805452BD7C198EBD9FD2B0BD66AA963DB22183BD48A68EBDF26B973BE78B493CC20BFC3BDA6478BD19085FBDC52D553D58F39E3BD8BF83BC3D8938BDDC564B3C859D48BCF1D33C3D1EC8663DB34EB23D1237873DB686823DBB0B793DF2AB2F3D7191313D100298BDE3402BBCA98964BD642567BDC0A836BCABFBA43D80D970BC4A6555BD2DBCF03CCED2243D44DE61BDBBC80BBD1257403CEDEF903BC3DCDD3C16199FBB84845F3DB775F3BC2C0A91BD28CF8FBD468BCF3C355B76BB2A6885BD8C36E13C316063BC07F6B33D350D5CBC582DA63DBA2E243D966F3A3C49CF6B3D5B7ECD3B27C4CF3CE917A3BD54CD4C3D3120A83DA8AE74BC62F5A43D01A58BBDCC5558BDAAC83BBDE80990BD2969B53C3D1B8CBD7CDFA23D0879A4BDB162E63C03FE663C2E37B43A70C0B2BCB4092EBDE671D9BCC6AE2B3DC7C486BC75CD87BDCFA9833D6ACC3ABD6D4F88BD31A71B3C2431C23B43DE973DE1CA7BBDE5D9683C04FD883DADD8E53CB37E0EBD728D86BC31495A3DE5FD37BDF5B166BD196F4D3DBA72AEBD5EFF7A3DF240963DBB92A43D24679D3DFF2188BD100B0A3DA2D3A03DEEC9A73C48F4533C5382B63C7BBD1C3D7FFE5E3C8803843D2D87FBBC9B8B2D3C365FB63C42FD7C3DFB9360BC85D009BDAE4D97BD1AE92FBDCD1F9CBD2C496E3C62C172BD8DB911BD387E35BB84B0A2BD279D073D2E3B303D1BD499BDFBD9AABCE27CA63CBB11A7BD770BA8BD27718EBD0469573DCE226BBCDFBA64BD744C573D4D92943CD4F9EC3CFF9F813D509AD9BBA5A2AEBDFC10E5BC50CA15BC1E269B3DB943F93CECD08A3D24AF913D18048DBDFD355E3C4003D6BC34ADA7BC5C4E9E3D42D447BCAE688DBDB432833DFA0E803DFFF78D3DB6B7D73CE95D573C586D97BD323CA8BB927D0E3D7E06BABC48639D3D213D3CBD81D205BDB42B10BCB69486BD91DCF1BC342DB23D96AA82BDE2368F3DB2268B3D205F4FBD9B62683DD4D7B4BCDE9DA33C5772553CA3256FBDA9833ABD5D9D373D32CDA53D47742EBD86D3723B5A7D79BD71EA583D1756353BB574913C2285B1BB9CC1BABBE6287DBC0D6150BD39FB93BCF870403DA18CAB3D2B69E63C51C767BDA123B0BD80A68BBC937678BDF9ED7BBB8093AF3DDB579ABD6267ACBDA5F816BCCE932DBD551BBEBCDF5CB13D4A94643D97E857BD68CAA6BD9FCCA43CC5E5A2BD6B5569BCB40F963D2217A93D38FF833DA86F8EBDF133AA3C5032D73CBF5D9ABC1E47C83C9DDC99BDD0251DBD596FF03C9F092B3D53619ABC4196B1BDD0210C3DF42E99BD8747F4BCEFD3023C30CDAEBCE40880BD9E33B53AAE49923D2B6A523DAA958CBD8DCDA0BDF9F89B3CAF3E8ABD779A403C5BEFA8BBFA1922BD273520BDD37CCABC67163CBDDAFD9D3D33ADEB3CD2274A3C5238143CE1D92ABDE8F5F6BCCEFE5EBD3688193D115E313CE95BC83CDE44063D7E53DD3B978BC13C19DAF4BCD5CC9EBDAE6133BC277DCFBA26C5B43D7EAE543D162874BC1229853DDFBFACBC8DF992BC5CAAAEBC338483BD4190A03D9C26903D886492BDD31633BD45AD64BD403E7CBDC52C52BC11A7A2BD2D7D99BD7173103DDE9EA1BD67EBE7BC2754813C90F7B13D217896BCEAEF38BD6A575F3C971B583D5F8BD6BC367D813D6C3FC13C8711A53D1A2FB73C5E1DDB3A3804F43CADD4A93D2A27B0BDB648783DE727BE3CC429DA3A99AF8CBB79D0A83D2611903DDC464D3D03D25F3DC868663D4427873D102C26BDC31F3C3C4646603DC9B2993D041F943D8EFC963DBEC08A3D83A4983DC491B03D7D84EDBC9824A93D24F6EB3CC6179DBD70E259BDF8D3AE3CD93E8EBDCB2843BD12A59B3D7CC1AA3D165298BD0FC06D3DBE0BC03CB7DFC13CF6C4463DAE1C2FBDB1B5833DBA94503C3ED7803D9D91C73B92F2443CF748CABC6994DE3C90CAAD3CFCCB97BDCF4A9EBC00A4A13CACC9803DDB0C3A3CDF1753BD581E9D3D0E54833C708990BCDD328F3DA043ABBBF5F16BBD6C38A73D7F13533D0E85AD3D4044F13CE44887BD6EBD2CBDBAA66B3C7A86083DB9C999BDB87116BCB8EC9ABDED2228BD7E52FC3C7E94A43D89B280BD07CA6F3D485CAF3D6EFA343C1EE48B3D7CEE69BD10FF7F3D1200873DE6E10F3CA93A67BD68F6A83C9E081A3D979EAF3D5334B03D698C1DBDA53D883D1C628FBCBF0A4D3D6EC3133D8947963D5C528E3DEA089EBCCB2481BD42593EBD368B8ABD336CE5BB294C653CB8A5673DC6BE6EBADE4B773D7D6888BC19DBB13D1D2D803D752A443D141EACBD8E30E63C79E222BDCB9D93BD6C19EABBBD55A43DF244693D745769BDD8E696BD7F5F00BC08B6923D8A0B2EBD3C8CD5BCB749573C0E1024BD449B28BDBBE2A0BD8655093B7A18ADBD01D660BD3A37643D965BA5BC728D28BD635C313BA60585BD8195713CD88894BBB1964ABD6F61ABBDB49D6A3D6CB771BD2354883DBD46B0BCBA23853DE8F45ABD838CA9BD981F973DB18F25BD74A812BC39F8E6BCA0B368BDC47B93BCE42E153D8F74E0BC9B4BA63DFD31A5BDC97BD7BBB357033D10588CBDC2766ABDF72181BD3C35543D2B0929BC37952E3B3D7A42BD0B923DBDF0C26ABD2D658B3D171BA03AE4C9483C1C178EBD3FD086BD4A82413D9C9A93BDF1DD55BD5DDD713D12F0C0BCE156C7BC744E643DF1799FBD9019BEBBFA162DBC4C7B713D2A329CBD36BE46BD939892BD2C3B8FBD7D042CBC6E318DBD3F2DE9BAE649D1BCC71102BDD0F6353DE72E7A3D7685A43D4EDE2B3CDADECEBB6CEB88BD6868E8BC8B85423DC123A73D6B076D3D70BC9A3D328327BB289AD1BCF2CBEEBCF49587BD22911A3DC03C4F3DCAF19DBD6202E4BC682CED3CAD658EBD5666233D1AFBFE3C1D015B3D7AFCA5BC70A884BCF44D4BBD0D5E733D5BB61EBDECED9C3DD06CB43CF69A753C5467523D4CA9003DACCCB2BDAEF659BC1222A5BC01AC20BDE6E537BD13DAA13D7755D8BC10ED363D71819C3D3451443D8A3297BDFC3D913D1C926DBDAF38AEBD47F1893D00E3A83DB6148BBD8234F73C74CB9FBD190583BD3106083DDE09A23C07B382BD03C0FF3C9C63F9BCF457A73CDC57973DB4B935BDC9958CBDDAB2ADBDA7D762BD7A52BB3C111B6EBD6D509F3D04EC073A9E9B893C0D46673D24B445BDF017DE3C9B808B3DDE0D15BC4F2D16BD11AB61BD85A790BD137773BD3A60E03BC5D3903D03089B3DA63C023DDEBD853C9AB7BEBC17751EBD73DE3EBD61253FBCB41154BD02658F3DF45AAA3DAB5E8D3DB0885E3DC9E1513D8BC8AC3D419B8BBDFD698F3DA7FD8FBC49BB8E3D50C1A63D0AF48FBC4B5C733D30358B3CFF415ABDBCDB67BDC2965D3DD380423D1040AC3B16708CBD50A0AABD0D6AA13DACC653BDFA5A1F3D2AA8803D00B870BBC2F5273D39D4673D2D89983BC6B0AABD726B96BD6AE9AF3D7197B1BDC621963C6FF1503D8E5D4F3D39C226BD57D8ADBDFC0EB03DAE01113DD6C3CC3CC382653DCDF405BD177599BD5ACB67BD1A19F43C1B21883D90C3153D4F935D3D787B37BC346A5E3DBEBBA2BDD8C589BD7369843D826F01BDA18676BDBD358D3D725744BDC8A7DF3C0FE3A9BD0B8996BD6EC85FBD69A708BDB6AF713D05B7F23C248D96BCB09D9DBDB74443BD96A290BA48F545BBBA37A0BCAF0EA43DFAB18D3DA5C7B1BDE52C9DBC93F806BD26A68F3B29FDB3BD343BA1BD4D2C29BCC0040BBDAFEA4ABD9010B7BCD520233D785C883DE32F54BD4574883DF02D9C3A13BA14BCC122603C62B082BDC6C130BDD4742CBDC4D55FBDABE12E3C86BDE8BBE4F1433C37E47DBDD75754BD738FA9BC26B3923B2609B23DB31C773DA530403D78031ABD2533A63C9A02713ADAF487BD522EA0BD4E51073D95336A3B0FB392BCFA7049BDBBBC5F3D6FD673BDF3FC6FBD90B786BD44465BBD2B3B153D6341913D6AA6153D2FA3A8BD020AAE3D4F6D883D635BACBDA4F98A3D0398343D9433C93C0986213D192E9B3DB62530BDA78F223D8C54BDBC63AF76BD86D54ABDC795823D3A5E903DB950AD3D06FCCDBCD189983D4765A4BD5032423D2474C6BC95EFA0BDF8349B3C924065BD04C366BD4C8F923DE643E03C529F72BD83FC533DD2C8F83C405746BD62E0223DCB0F90BCB42C74BD19C68A3DDE25A03DE7523A3D593C65BDC9EF1C3D34F9713C29C88A3D766AB13C5552A13D675D203D71D9623BB23DB33D974022BDD9F5233D45F653BC85FE1D3D685453BD6334143D291752BDB1C1483DA7D92DBD9885923D1B88ABBC587A47BDA3DF80BD708B4F3D0118013DD8EB97BBB467863CF47E9F3C0F839F3D37A876BD710192BD6F88AC3D50DA60BD626E9A3C6E16A0BCFEF6AC3D7C4B8EBD4F595C3C7291883D44BC9F3D94DA0EBDEBD3A23D25EDB5BC65A5CABCB204A8BD2C6ACBBC9A5CA23D0E892BBD1600D73C289376BC3576C4BC05CE4F3D3BF6D63C1BC85CBD4265A2BD2592903D2F38ACBDA30515BDE8A900BD0A797EBD76BC34BD6C9C12BD5F4643BDB2AA83BD4AEB333D0B92ADBD80A21A3D6008263D39FEAE3D087A9E3D8FB008BD5CBBFDBB0462323D02EE393C24821EBD2B455CBD9A36783C2E510A3D03DC823D7118A63D5D449F3D0026F5BCB4A06BBD37B4FA3C842B71BD32F30A3D8C0969BDA233433C3CD3BCB9C16125BD7262BDBC656D78BD2C451C3D741F84BDE97F7A3CF84CF7BC0F32353D4902AFB9BEDA56BC57491C3CCAB7973D0A919CBD85E9873CDE07FC3B78F0093C3DC1CEBC26FC5DBD1D1EA53C7B8670BDC41F02BD7A783D3D681E763D20EA7BBC04E9063DD31E993DCCF791BD33CC35BD562EB13BA1BC833D3237843D6117A03CDF23A53D45E0F7BCB3EA7B3D8BF4E0BB0751403DBB864D3DBCFA423DF669733B95E5A1BD04B3D13B219B94BD63258FBCE43957BD41F6B83BC31852BD46758FBDD1B1B53C026603BDF68288BC001A00BD2BA6353D2E15A43D935787BDC0B23ABDD629A5BD5D70B1BDBD690ABD39CD4B3D9B17733DA291C33A5DE0FA3C7D0C45BDB64461BC41BB8B3DB9D69FBC2CE61ABD8779DC3BEAFBA9BDD9738EBD49C1C5BCAB61833CD784503DA1B5D83C79ED293DDD16B1BDC756CE3CF7B9AB3DB8FF333CF78212BDC4CC43BD6DDC923CA49A5CBD6935EB3C352A843D1BA794BD8B49963DA6C1CCBB8009593DF5459BBDFC01AD3BAC28A5BD50279BBD46A09CBD1280F9BBC9F891BDC823733B2158E2BC80C4933DAD24383DBDD89E3D37038D3D18928EBD876E0B3C12B7A93D7CB7D0BC9D8E833D3E272B3D0863853D8049B03CAF8882BDCF86A73D501D2A3DC5A4823D9324583DBB8EB2BD2F32A53D1A467DBD12F481BC81AE6F3DE0099C3CF0B5043DED9019BD2AD58E3D6F05833C1921ACBDF7691C3DE7B29A3D6295A2BD3C3296BD91384A3C1A3780BDCA452BBD03E59CBC5AB036BC27A75FBD8C0280BD5335C1BBE401D43C417D98BDA21370BD0FE24FBDD4477ABD85FC9C3DD1E99ABC7202E9BCE362A83D315C813DCC121F3DB2DE723DBF2D27BDA30C983CAC38863DCBF164BD308482BCFE19E2BA7223673C92C8F93C0955623D6CEB07BDB56A3D3DF1E9B93A8DBD973D99975D3D7D6318BD7354903C7517DDBC299934BD1694943D9D36813D6E3B1A3D905E293DF9EDADBD8D291CBD00C96FBDE018A63D89E1953DA641D3BA83805CBC8A47393D6764B3BD6057863D71CC0B3CC8484DBDB08B903DA016573D25BD5C399D248BBC6AB3033DE686A9BDD5978ABC62530B3DF6A704BD558AB83C3EEB2F3D3D3B2DBDD546803DAFDA48BC1809C83C5DE25F3B726C963DC950743C71AFAABD2AAD0DBD3008653C0D7A6CBDF4C6843D8B534B3D0B87443DB706DBBC0E9EA43DA96A40BD5BB8A73DC0F1553C8839C33CBDADD0BC0A8A743D2BAA35BD2E48B43D7AE71ABDD56E903D17FB9F3DFEA9873C83EB0D3DA19B63BDAD5072BD2D88D03B508FF6BCD361953DFC04963DAF1CA9BDD50B1ABC4F2B5D3D3E1C84BDB2E76A3D4E60013C1739C33CADB27DBD6257B3BCCEF66D3DBB83D5BC4AFD4E3D66531F3D8304603D30665DBC8F0D41BD18ACA3BDF2C98FBD3075493C438B16BBE0A999BD4901863CADCA85BDBA824E3D9A38EE3B36AFBD3C273EB43D4D0E97BDF4AE8FBDFAFF1BBB1831B3BD4C55A4BCC3A75FBDA705233DEF954B3DA62F8FBD581C84BD4BE4033DBF82463C8A4976BD03A193BD1E4E4BBD9A0E29BCE70F83BD3DD2773CE8489E3D2C99DC3CE93C9A3C27E13C3D55FA5E3D6D3C9A3D34FDC73C6CB88FBD9404B83CB3DEA2BD6D4CAB3D4C61AC3DB217813C4A6D273D2C280B3C0612153DAA39763D5FF325BC2F7CA9BC1DF59ABDFD26C83C9EB384BD9A02643C9AF1B2BCBD546A3D54F1603D2B0D893D662BCABC20DF3B3DF892A3BD8C5D8A3D884E96BD0D7E9F3DE2A9A8BC5C2D8F3D1644A23DD991ABBBFCE1943CE6468B3DC1A4993D5053B43D8559693DA65F90BD3D2C5F3CC84049BD30558CBD63C2393CFAAA743D3701A03C255A613D0BF4EF3C91CFC83C7DFF873D3474A43D19A89BBD24CBF83C06E1B33D0169A3BDEC04213C09AB4BBD70EB1BBD67D7B0BDCA29883D563CA9BD308B3E3C5F8CFF3CCD9E333D280383BD4529B33D16019B3CBB1E0A3D9A143A3DEDD152BAF0FC503D70BB703D454EA23D53BB533DBE12EBBC27F9053CDF6CFD3B77F2C73C58119F3DE4E28A3D389687BD79BA40BD05BC343D9CF69FBDDCB5A6BD21B29FBD45A26E3CA35606BD68C793BDF630A43D66134FBCC2FF4B3D81E08B3C400C553C50F396BD2308303DCE61973D8B79AA3D89E6253D413FA83DD99AB23C029AE1BB6D7BC3BC333BE33A52D822BD710580BDE468A53D1FC81ABDCEF3E63CB6055B3D0EC6E8BCFE348A3C642EC03C450F543D519D14BDC0C9FCBCBFAC7ABD15F3ADBD36D316BB47D2A7BD090BD93BFB80A83DA45D84BC95C6B63CF491303DC38D7F3DA7C89CBD353F33BD69F63EBD6ACA8ABCE4B1403C9B7330BDFAD7A43C5B5D103D22FD8ABD8360693CBB352ABCA8B5F53B5CC790BDD331B63C668BA2BCEAFD9CBB8580523D56628A3CCC210B3D1B77933DC630B3BDE4F8CCBC4187A93D481B86BD3A97753DF751233D66E8693DC700023D2D972FBDDB7691BD34E0A53DC3D0AF3CB30898BD5F0C98BC3EED10BD39E3533C0C6EC1BC97FE81BC0565C7BC03CA6EBD0DBA323BD1D05F3D936EA23DBB3ABEBC9434883D01C59A3D4B98913DA44D413D06CC973D5EC994BDD504AB3DD5518EBCB30D863DFDF997BB1B7158BDC4C5143DCB9DB3BD148548BDAA1D6A3A2B6B83BCEE89F8BC4338973D152D973C622B623D898F893D4F5756BC3EFFB23DC081BEBC75D90DBD3052D93B78328FBC574C913D2AA6883D8B73843D461EA8BD26B929BDF9581CBDD8C2323D38832BBC53C6A73D58637DBDCEE87EBC51CCF7BA3F36833D5073AEBD1FDB8E3CB4DFAA3C5820F1BC450C0ABDC0E398BC4AB91F3C53EDA6BD6502853D4B69DB3CCEDD8E3D74122C3D45EF873DA8FBAFBD9E50383D145C0FBDA749173964B68EBD2F987ABD802C3ABD65F424BD35FFCD3CB28E88BD383A303D8039523D4E7C5DBD109A98BD524950BDD645183DE60F093D95A9F2BCA2D5AD3DC8EB773C2B2C18BDF81F083D2A8099BD69AE553D7A32B8BC8AB7ABBD4D8BAABD113C8DBD5EF3A23C737930BD3A24053CE8C156BB3C547CBCDA74AF3DD296163D401AEC3C1CB8C23B589B923DDAF54E3D7F599B3C690A58BD91F049BDAFF632BBE5866DBC64EB0FBDA603693D903419BC04CBD9BB2A6E0FBD3017593C8BBCC4BC89D9E53BA70D84BD6CB1CDBC0E908B3DBBFB61BD270C7FBD8CB146BD733E6F3CADA3853D50B85BBD7BAD94BCD43FE1BCF8C83C3D7667783DDA2EE2BB675983BCE92B7E3D10DFB6BC3A84163DCBD3A13C3664ACBD03B4553C56948D3D2EFF9B3CF83C56BD51BF26BDEB56A4BDB94C9ABDBFE2AABD99396BBDBB990F3C71DF98BDDA4BAE3B2B659A3D2053943C6B0B8B3D3B14FABC676C863DCA3DB43D4C2B1C3DF512D7BB8C59093CB44AD83B8C8E8F3C709D7F3D7FF19B3DAF7334BDB4C681BA817D41BD036A413D36FD783CA2E4A13C7CC0A6BD26909A3CD78572BDA49A863C9A6432BD49E33EBDEDE123BC70C1F03CECEE09BCDB92833BDFBA12BD3E112B3C3AA1E23C4D135F3D4FB9133CC17C8F3D126737BDBC650D3DBEFCCB3CA737A63D05B6953DC7FEAFBD84347C3D68B871BDDC55D4BBE7C53FBD408C9DBD2A14C83BCEDB21BDC16992BD7B9117BD026500BD274D093DB33F8D3D1B03B53DE56145BCCB8AEBBC462979BB3277B13D97FC07BDED28653D749989BCEC72B4BD5D098B3D4433153DB1C559BD7E3D94BC8C149D3DEBAB1BBD0DDF13BCF4FD91BDCBA99B3D1B832E3D58E408BD9C2DB5BA47E39A3BA9AE5CBD09A371BDD7DB963D64F87B3DD4CF273DA5FBB4BD3CA3323D3558AABD4C08B2BD6D7E573D30A83CBD3D8E8D3D01040ABB4F5A6ABD5AC4B1BD8B2D0DBD1274253D026042BD3740963DC498513D77B0863D8987503D197EAA3DE7FFA73DC23BA73CE48EF63CFB0B5EBDCC278D3D0C30AD3DC7B182BD70D895BDE4F5CB3CB2768DBC571D90BC29F3EBBC092C753CE03E1CBD2AD5B43D581E21BD3549DFBCAB565ABA414610BD1620283CB73797BD7C1181BC859E603D323138BC262C353CD95F00BC23F8DD3CBD50213D0206423C7100AE3D42EFA6BD2770853CCC69A3BD420C21BCF058A5BC70BA8EBCB44BB53C5EDBF2BC91052BBDC692B43CBB7B9ABD285C8E3D11A4A93DE960AE3DA6FF533DF4F079BD0055F1BC442B59BD3C1456BD75BBAFBD557E0CBDA46242BD9C3E273AD3C5463D4C6657BDFB293E3DD6801E3C05C6123DED82823CE87D99BDF36F0E3C8AEE4E3D0479D43C927E6A3DF56E12BC85147A3D4D4BA1BC4E5320B9702063BD27C69B3DC5F8673DAA5E2A3DAEC91C3DF47E3C3D5C9BA3BD895686BCBA71D4BCEE9E55BB1B753FBDC84722BD7AA304BD919C973D8A70873D3077253CF969643CEBE19BBDE5762EBC1AF045BDA4F3F43BC9810DBC69F14EBDC3ED773D26E38DBD242F23BDFD243E3DD592123DB158A23D8E3D2C3D589E573CCFF55FBCF6F7E13B0EF520BD43F45FBD0CF8103D1D27A83D2D987EBD788789BD03C16F3D47DEAC3AF21E1EBD4B3A95BDB7FC4A3D8387113D3EDDA4BDF05C6A3D46263B3DA18ED83C09CC7ABD5240F53CFA91B0BBBB188EBC9CB7A53DDDAC943CF16E883C7F107CBD66A185BD3B81EA3C0A4F723DF49A943D59D5023B64FAAFBC56E7613DF7E382BD447C83BD45D11EBCF75B933DAB2A9B3D07BC6BBA98125DBD0C3C053D5081503D68C591BC1530CABC42918A3DCF180C3D8E818DBDF5229DBD882722BDD403903DB4E932BDD460ACBDB82D9BBD1DE69DBAA6D16FBD1985013DD39B79BB017F353DE16D8DBDF24295BC45D1743D6983F0BB13C4A33D563BB13D0271DE3CAA5AE3BA506A97BD2E9998BD419A0A3D7E3B773C806090BD682E893D7129ACBD4553C03C59FFAD3D017D333DB4DFE9BC5B09E63B6164C7BCA91508BD39A6403C29D16EBD7F10E93C7197B2BD380954BD6307B43DDE7829BD35EF8E3C818ADF3A6A575FBD6C73853B72E8A3BDDF5D973CA94EC73CEDC631BDBE3F5ABD5919453D4E79DC3C0D723CBC7BF09DBDDDED48BDFCA6AE3D549282BC6CF26F3DB4A7A7BB2E9F1FBD8E2E603BCE0EA43DC16384BD2BACC4BCA117D13B87951CBB4A8E7BBD3916043D54DE22BD2D9BB4BD0528843D5E408F3C0248583D189609BC32ED303B238552BD6B2F553D219D42BD97233F3D0AE19EBD864A91BB0CC931BDF0439FBD7D69E83C27A0E9BB50AC6E3DB724E13BBB7A69BDFFD0863D23F3A8BCC07EFCBA0F5EF6BCEBAB1B3CDF3289BD1A27723D505A583D81120BBD1E821EBD69007E3D9BAB9C3CB1589D3A15251BBD28EB593D6B6FAC3DFB287C3DA66BA6BCB078FEBB96B086BD476B90BD603F7C3C26E886BD2639C9BCD8D1973DE65EBB3CD596B4BDB62B86BBBC4B143D669C403D769B073D5841883D7BCC873DE15BB23DF44CA93D2D247C3D8F0F803DADBB5C3D267EAA3DB18DC5BA">
  memref.global "private" constant @__constant_64xf32 : memref<64xf32> = dense<[0.025142733, 8.37879342E-5, 0.0135181695, -0.0461499356, -0.0155755254, -0.0363526158, 0.00303792371, -0.00423720153, 0.039250318, -0.033413779, -0.0547833368, 0.039673388, 0.0180140045, -0.0255908594, 5.98105893E-4, 0.0661865696, -0.0501837656, 0.0682942048, -0.0173088666, -0.0422498658, 0.0808842703, 0.0408039428, -0.0811549127, -0.0043380484, -0.0117433863, -0.0196635071, -0.0711005703, 0.0420529246, -0.0016125805, 0.0670484304, -0.0731541961, -0.0225928705, -0.0104369819, -0.035805326, 0.0650877654, -0.0471382551, 2.51932768E-4, 0.00637995824, 0.0787299349, 0.0157984607, -0.0359687842, 0.0432723686, 0.086680375, -0.0861819834, -0.0488357097, -0.0247975606, -0.0627996698, -0.0822749883, -0.0754786283, 0.0429059453, -0.0103113633, -0.0377375185, -0.0691274256, 0.0114919702, -0.0418850221, -0.0798624679, 0.0169087257, -0.0245952047, 0.00122720026, 0.0203816369, -0.0368887112, 1.717520e-02, -0.0877030417, 0.0660884082]>
  // ml_program.global private mutable @global_seed(dense<0> : tensor<i64>) : tensor<i64>
  func.func @forward(%arg0: memref<64x128xf32>) -> memref<64x64xf32> {
    %cst = arith.constant 0.000000e+00 : f32
    %0 = memref.get_global @__constant_64xf32 : memref<64xf32>
    %1 = memref.get_global @__constant_64x128xf32 : memref<64x128xf32>
    %alloc = memref.alloc() {alignment = 64 : i64} : memref<128x64xf32>
    affine.for %arg1 = 0 to 64 {
      affine.for %arg2 = 0 to 128 {
        %2 = affine.load %1[%arg1, %arg2] : memref<64x128xf32>
        affine.store %2, %alloc[%arg2, %arg1] : memref<128x64xf32>
      }
    }
    %alloc_0 = memref.alloc() {alignment = 64 : i64} : memref<64x64xf32>
    // affine.for %arg1 = 0 to 64 {
    //   affine.for %arg2 = 0 to 64 {
    //     affine.store %cst, %alloc_0[%arg1, %arg2] : memref<64x64xf32>
    //   }
    // }
    // %alloc_1 = memref.alloc() {alignment = 64 : i64} : memref<64x64xf32>
    // memref.copy %alloc_1, %alloc_0 : memref<64x64xf32> to memref<64x64xf32>
    call @forward_kernel_0(%arg0, %alloc, %alloc_0) : (memref<64x128xf32>, memref<128x64xf32>, memref<64x64xf32>) -> ()
    %alloc_2 = memref.alloc() {alignment = 64 : i64} : memref<64x64xf32>
    call @forward_kernel_1(%alloc_0, %0, %alloc_2) : (memref<64x64xf32>, memref<64xf32>, memref<64x64xf32>) -> ()
    return %alloc_2 : memref<64x64xf32>
  }
  func.func private @forward_kernel_0(memref<64x128xf32>, memref<128x64xf32>, memref<64x64xf32>)
  func.func private @forward_kernel_1(memref<64x64xf32>, memref<64xf32>, memref<64x64xf32>)
}

